<unk>	0
<s>	0
</s>	0
ha	-0
▁m	-1
on	-2
en	-3
ti	-4
▁k	-5
tion	-6
▁men	-7
▁mention	-8
ar	-9
an	-10
hi	-11
▁b	-12
et	-13
▁ha	-14
▁s	-15
▁a	-16
▁t	-17
in	-18
..	-19
ta	-20
▁R	-21
ya	-22
ra	-23
▁n	-24
al	-25
▁h	-26
sh	-27
▁p	-28
▁d	-29
▁A	-30
▁S	-31
we	-32
...	-33
▁j	-34
weet	-35
am	-36
▁hai	-37
▁l	-38
etweet	-39
▁Retweet	-40
▁K	-41
at	-42
is	-43
he	-44
▁M	-45
▁B	-46
er	-47
▁c	-48
ad	-49
▁g	-50
ye	-51
tag	-52
shtag	-53
ai	-54
▁hashtag	-55
▁H	-56
▁ka	-57
hu	-58
▁ki	-59
ak	-60
as	-61
or	-62
▁T	-63
ur	-64
▁na	-65
un	-66
▁ho	-67
han	-68
ee	-69
ab	-70
▁ko	-71
di	-72
um	-73
▁P	-74
la	-75
▁D	-76
▁w	-77
▁to	-78
▁J	-79
ay	-80
ho	-81
aa	-82
es	-83
▁I	-84
▁kar	-85
ir	-86
▁ra	-87
▁me	-88
il	-89
it	-90
▁ke	-91
▁r	-92
▁N	-93
har	-94
us	-95
ek	-96
▁f	-97
ag	-98
ol	-99
na	-100
ch	-101
▁se	-102
▁ba	-103
ik	-104
▁bhi	-105
te	-106
ap	-107
▁G	-108
▁C	-109
ne	-110
oo	-111
ri	-112
▁hi	-113
▁Y	-114
and	-115
ga	-116
aj	-117
▁nahi	-118
id	-119
le	-120
▁v	-121
▁L	-122
▁ma	-123
ul	-124
ing	-125
▁ja	-126
▁ya	-127
hai	-128
▁ap	-129
ut	-130
li	-131
ana	-132
▁W	-133
ah	-134
og	-135
ka	-136
▁ye	-137
da	-138
iya	-139
▁sa	-140
▁cha	-141
eh	-142
os	-143
▁is	-144
im	-145
▁kr	-146
😂😂	-147
ari	-148
▁in	-149
ki	-150
ic	-151
uj	-152
▁aur	-153
ke	-154
om	-155
▁ne	-156
el	-157
▁ga	-158
ang	-159
ni	-160
▁E	-161
▁tha	-162
uch	-163
re	-164
▁i	-165
▁de	-166
ko	-167
▁hu	-168
ani	-169
ma	-170
wa	-171
▁F	-172
▁U	-173
▁O	-174
cha	-175
▁V	-176
▁y	-177
▁.	-178
▁hain	-179
ud	-180
ara	-181
▁o	-182
▁kya	-183
▁ab	-184
▁li	-185
▁z	-186
ve	-187
▁/	-188
....	-189
uk	-190
man	-191
end	-192
th	-193
lo	-194
▁aa	-195
▁pa	-196
me	-197
ge	-198
ali	-199
up	-200
▁he	-201
▁par	-202
▁e	-203
dia	-204
▁us	-205
ub	-206
▁dek	-207
▁1	-208
ind	-209
ath	-210
▁Ma	-211
ro	-212
▁aap	-213
ala	-214
se	-215
eri	-216
▁tum	-217
▁the	-218
▁...	-219
ig	-220
▁sab	-221
are	-222
▁jo	-223
▁log	-224
▁Na	-225
▁nhi	-226
▁koi	-227
▁lag	-228
hara	-229
ane	-230
ist	-231
▁ji	-232
HA	-233
ise	-234
ere	-235
lah	-236
gi	-237
▁mein	-238
sha	-239
▁wo	-240
▁pe	-241
▁Ab	-242
▁In	-243
▁ni	-244
ja	-245
▁bhai	-246
ura	-247
▁be	-248
mi	-249
odi	-250
▁Ka	-251
▁toh	-252
▁kuch	-253
▁Ha	-254
▁tu	-255
sa	-256
▁2	-257
▁kha	-258
▁Al	-259
▁ek	-260
▁bol	-261
ia	-262
ot	-263
▁or	-264
▁_	-265
isi	-266
▁un	-267
00	-268
de	-269
▁sam	-270
ram	-271
ate	-272
▁liye	-273
ter	-274
▁main	-275
▁😂	-276
▁😂😂	-277
▁it	-278
▁thi	-279
▁Sa	-280
▁khu	-281
▁Ye	-282
vi	-283
hir	-284
▁raha	-285
ff	-286
▁co	-287
hut	-288
AN	-289
kar	-290
▁Me	-291
▁Ra	-292
hat	-293
chi	-294
IN	-295
!!	-296
▁an	-297
▁re	-298
Khan	-299
one	-300
shi	-301
hr	-302
▁bad	-303
▁sha	-304
ena	-305
__	-306
ale	-307
▁do	-308
▁sir	-309
▁le	-310
ck	-311
▁baat	-312
ly	-313
od	-314
ty	-315
▁wa	-316
si	-317
AR	-318
ujhe	-319
▁di	-320
▁Z	-321
▁An	-322
In	-323
ong	-324
▁hum	-325
ce	-326
??	-327
▁chu	-328
▁lo	-329
▁bha	-330
▁:	-331
ant	-332
▁Ko	-333
▁"	-334
adi	-335
ham	-336
▁mil	-337
▁Ba	-338
yan	-339
▁dekh	-340
ard	-341
▁man	-342
▁so	-343
ji	-344
kh	-345
▁ky	-346
▁ban	-347
▁rahe	-348
za	-349
▁//	-350
hal	-351
ran	-352
ess	-353
ent	-354
ou	-355
▁Hai	-356
bhi	-357
▁Kar	-358
▁Bhai	-359
▁kam	-360
ng	-361
▁Is	-362
▁Ap	-363
st	-364
▁Be	-365
▁and	-366
▁hota	-367
▁-	-368
▁mai	-369
ish	-370
ba	-371
🤣🤣	-372
01	-373
▁Ya	-374
▁Allah	-375
ans	-376
isa	-377
▁ch	-378
ed	-379
▁bo	-380
huk	-381
alman	-382
▁u	-383
▁ak	-384
▁aaj	-385
▁,	-386
▁De	-387
India	-388
to	-389
hy	-390
akist	-391
▁sak	-392
ada	-393
enge	-394
gar	-395
va	-396
▁Sha	-397
▁As	-398
▁tak	-399
▁as	-400
▁Kya	-401
yo	-402
▁da	-403
▁la	-404
▁..	-405
▁mar	-406
oor	-407
ey	-408
oss	-409
▁kiya	-410
nd	-411
oh	-412
▁Ja	-413
▁al	-414
che	-415
rat	-416
▁Ar	-417
ine	-418
eta	-419
ush	-420
▁q	-421
ok	-422
ew	-423
▁ham	-424
▁ta	-425
▁Ho	-426
ina	-427
▁ti	-428
era	-429
▁Tum	-430
▁The	-431
▁rahi	-432
▁pr	-433
ht	-434
ct	-435
pe	-436
ood	-437
▁Jo	-438
umar	-439
war	-440
ama	-441
▁hoga	-442
▁nai	-443
hab	-444
▁Jai	-445
▁gaya	-446
fa	-447
AM	-448
▁Aur	-449
ake	-450
▁Sid	-451
▁mo	-452
▁din	-453
ry	-454
hari	-455
▁Big	-456
▁lik	-457
ingh	-458
13	-459
▁Im	-460
ver	-461
▁Re	-462
tar	-463
▁yeh	-464
▁mat	-465
est	-466
▁fa	-467
▁kisi	-468
ffic	-469
jay	-470
akistan	-471
hin	-472
hee	-473
▁har	-474
▁dil	-475
▁diya	-476
▁Am	-477
hiye	-478
fi	-479
12	-480
wal	-481
pa	-482
ny	-483
ial	-484
▁3	-485
▁?	-486
hak	-487
▁Sir	-488
▁hua	-489
hul	-490
ru	-491
▁apne	-492
san	-493
eed	-494
▁nar	-495
▁hon	-496
ii	-497
▁pad	-498
▁dik	-499
▁ad	-500
her	-501
ollo	-502
▁sun	-503
ith	-504
ayi	-505
▁Par	-506
▁tar	-507
▁of	-508
ust	-509
▁nik	-510
▁Ram	-511
ast	-512
hil	-513
TI	-514
day	-515
▁Sab	-516
ore	-517
▁Ek	-518
harth	-519
▁jan	-520
▁sath	-521
hukla	-522
▁bar	-523
oon	-524
▁Aap	-525
▁Ga	-526
▁mu	-527
▁chal	-528
▁jaye	-529
▁khan	-530
19	-531
ase	-532
▁am	-533
▁5	-534
ow	-535
cho	-536
▁si	-537
▁cho	-538
▁pata	-539
▁bat	-540
▁jaa	-541
▁apni	-542
▁Being	-543
ame	-544
ost	-545
ass	-546
▁mujhe	-547
▁kis	-548
▁mere	-549
AL	-550
▁ro	-551
iv	-552
▁khud	-553
▁ar	-554
▁narend	-555
aaz	-556
AI	-557
▁sar	-558
▁Se	-559
aap	-560
▁Ki	-561
▁we	-562
ramodi	-563
▁Pa	-564
pp	-565
▁Hum	-566
▁narendramodi	-567
▁meri	-568
bi	-569
▁It	-570
▁🙏	-571
ug	-572
▁jab	-573
▁karo	-574
wan	-575
▁for	-576
shm	-577
▁Bigg	-578
▁im	-579
▁Cha	-580
AT	-581
ete	-582
EE	-583
ss	-584
▁Ak	-585
▁sahi	-586
▁rha	-587
andi	-588
▁hoti	-589
▁tho	-590
▁hy	-591
▁tweet	-592
▁She	-593
ide	-594
Boss	-595
SH	-596
hot	-597
alo	-598
▁(	-599
uri	-600
11	-601
▁at	-602
hit	-603
fficial	-604
asha	-605
▁peh	-606
ollow	-607
AY	-608
▁Modi	-609
all	-610
▁abhi	-611
▁Tu	-612
andhi	-613
▁you	-614
yi	-615
ree	-616
ue	-617
var	-618
▁keh	-619
▁Kuch	-620
zi	-621
▁kaha	-622
▁RT	-623
▁Q	-624
▁maa	-625
▁phir	-626
▁kabhi	-627
▁bana	-628
ill	-629
▁Imran	-630
agi	-631
▁bi	-632
tay	-633
▁Har	-634
ega	-635
▁Yeh	-636
▁lek	-637
yar	-638
▁Koi	-639
chan	-640
amp	-641
eep	-642
😭😭	-643
hun	-644
▁ut	-645
ene	-646
▁chahiye	-647
▁te	-648
▁mera	-649
yada	-650
▁Bha	-651
▁To	-652
shmir	-653
hn	-654
▁sirf	-655
▁band	-656
▁BiggBoss	-657
almanKhan	-658
▁ghar	-659
▁Ji	-660
▁Nahi	-661
hen	-662
▁jis	-663
JP	-664
eem	-665
▁on	-666
ber	-667
▁tr	-668
ews	-669
zar	-670
▁4	-671
app	-672
▁per	-673
▁bahut	-674
▁kit	-675
▁desh	-676
ua	-677
▁sid	-678
por	-679
tam	-680
▁aj	-681
▁Pakistan	-682
AA	-683
TV	-684
uu	-685
ank	-686
ure	-687
▁❤	-688
▁che	-689
▁Aaj	-690
ity	-691
▁gya	-692
▁my	-693
ice	-694
aki	-695
tiya	-696
ON	-697
▁muj	-698
▁😂😂😂	-699
▁bata	-700
▁iam	-701
▁ac	-702
▁logo	-703
ula	-704
▁😍	-705
hik	-706
uru	-707
▁lad	-708
▁je	-709
▁Khan	-710
AK	-711
wit	-712
shay	-713
.....	-714
▁sy	-715
▁We	-716
▁JIN	-717
▁Di	-718
ann	-719
SalmanKhan	-720
▁Ham	-721
▁Ke	-722
▁vo	-723
▁Mai	-724
du	-725
▁Dr	-726
▁ku	-727
▁mi	-728
▁st	-729
▁Mo	-730
harat	-731
▁kaam	-732
▁Raj	-733
op	-734
je	-735
tak	-736
▁karna	-737
▁karne	-738
10	-739
▁fir	-740
▁kon	-741
ER	-742
my	-743
▁up	-744
fe	-745
▁!	-746
age	-747
HI	-748
▁kia	-749
hare	-750
▁Mar	-751
bar	-752
dar	-753
▁mas	-754
tha	-755
▁ah	-756
van	-757
▁gi	-758
▁&	-759
▁don	-760
▁naam	-761
▁laga	-762
▁karte	-763
▁Khu	-764
▁say	-765
▁ag	-766
▁jal	-767
▁dun	-768
▁gaye	-769
18	-770
▁wale	-771
ami	-772
ting	-773
▁kal	-774
78	-775
our	-776
▁Ro	-777
▁apna	-778
▁wala	-779
▁BeingSalmanKhan	-780
▁no	-781
ika	-782
hri	-783
▁....	-784
▁Wa	-785
▁Jab	-786
02	-787
😂😂😂	-788
▁dar	-789
yy	-790
hah	-791
▁Sar	-792
hank	-793
ll	-794
▁woh	-795
▁bas	-796
ori	-797
hiv	-798
▁BJP	-799
men	-800
▁India	-801
▁kyu	-802
▁kho	-803
▁Dil	-804
▁Wo	-805
alam	-806
▁hun	-807
ain	-808
khan	-809
ors	-810
99	-811
▁reh	-812
!!!	-813
▁baar	-814
▁🤣🤣	-815
▁tab	-816
▁Dek	-817
▁Kab	-818
▁Asim	-819
anj	-820
▁baad	-821
yal	-822
ese	-823
▁rak	-824
▁chan	-825
ini	-826
▁but	-827
witter	-828
oot	-829
ail	-830
mo	-831
LA	-832
ade	-833
eng	-834
tic	-835
do	-836
▁Us	-837
▁Lo	-838
▁Pra	-839
▁Sam	-840
mat	-841
ts	-842
indagi	-843
dha	-844
bha	-845
eel	-846
ung	-847
qu	-848
zz	-849
▁pra	-850
▁Hind	-851
▁bhe	-852
PTI	-853
▁Main	-854
▁pro	-855
aid	-856
orn	-857
14	-858
▁sho	-859
ers	-860
oj	-861
eeb	-862
ays	-863
▁gal	-864
harma	-865
▁samj	-866
▁agar	-867
ress	-868
▁Un	-869
AD	-870
yu	-871
tra	-872
em	-873
▁Man	-874
co	-875
asi	-876
▁Aa	-877
wad	-878
▁karta	-879
be	-880
▁bho	-881
yega	-882
▁jin	-883
rish	-884
ashi	-885
▁itna	-886
▁sub	-887
▁liya	-888
▁pak	-889
▁follow	-890
▁shu	-891
▁rakh	-892
pi	-893
▁min	-894
▁wali	-895
mar	-896
Singh	-897
▁po	-898
▁sb	-899
▁aja	-900
yam	-901
▁vi	-902
port	-903
17	-904
ilk	-905
▁kare	-906
dh	-907
ment	-908
anda	-909
▁So	-910
OO	-911
▁6	-912
▁Abhi	-913
ona	-914
Ra	-915
▁maj	-916
ull	-917
▁Or	-918
▁Col	-919
▁saath	-920
▁PM	-921
▁pi	-922
haa	-923
▁ge	-924
▁hote	-925
lam	-926
▁time	-927
▁bola	-928
▁mad	-929
▁tere	-930
SHA	-931
Shukla	-932
▁va	-933
hta	-934
raj	-935
wali	-936
hh	-937
▁jag	-938
▁BB	-939
▁kab	-940
urat	-941
RK	-942
Ka	-943
▁com	-944
▁teri	-945
15	-946
yaa	-947
▁pas	-948
▁pat	-949
▁kro	-950
▁nam	-951
23	-952
▁Hain	-953
07	-954
▁go	-955
▁bab	-956
▁Real	-957
lay	-958
was	-959
ook	-960
esi	-961
▁jata	-962
▁Dev	-963
▁bhar	-964
had	-965
▁Meri	-966
▁mus	-967
▁Happ	-968
▁Hi	-969
▁naa	-970
ws	-971
Sa	-972
shmi	-973
tu	-974
jin	-975
▁aise	-976
ous	-977
▁HA	-978
▁su	-979
ogi	-980
iss	-981
An	-982
tal	-983
▁Haha	-984
▁AK	-985
▁ImranKhan	-986
mad	-987
▁nikal	-988
yaar	-989
lim	-990
dian	-991
yon	-992
▁she	-993
▁sm	-994
▁Mujhe	-995
▁like	-996
▁IN	-997
oge	-998
▁gayi	-999
hna	-1000
As	-1001
shan	-1002
▁pehle	-1003
▁7	-1004
hone	-1005
▁tera	-1006
waz	-1007
▁Happy	-1008
News	-1009
▁Rahul	-1010
IS	-1011
▁Colors	-1012
▁Tha	-1013
und	-1014
esai	-1015
▁rhi	-1016
▁far	-1017
▁Sahi	-1018
▁nahin	-1019
▁Ad	-1020
▁gai	-1021
019	-1022
aka	-1023
▁samaj	-1024
ilkul	-1025
Of	-1026
ukh	-1027
▁aisa	-1028
ky	-1029
rs	-1030
▁ColorsTV	-1031
agar	-1032
▁AN	-1033
esha	-1034
aro	-1035
???	-1036
22	-1037
▁ram	-1038
▁saal	-1039
▁kh	-1040
bo	-1041
irl	-1042
▁yaad	-1043
▁Ni	-1044
akh	-1045
▁hui	-1046
▁rhe	-1047
▁lekin	-1048
ile	-1049
▁iss	-1050
no	-1051
rk	-1052
▁ker	-1053
abi	-1054
▁con	-1055
▁chor	-1056
▁dikha	-1057
▁yaar	-1058
bat	-1059
▁Ne	-1060
ideo	-1061
wi	-1062
▁Mera	-1063
ikh	-1064
09	-1065
▁kut	-1066
▁baap	-1067
hana	-1068
▁jaise	-1069
▁Kha	-1070
kumar	-1071
▁Bhi	-1072
▁KA	-1073
▁Mu	-1074
az	-1075
▁🤣	-1076
oli	-1077
▁No	-1078
▁lagta	-1079
▁acha	-1080
▁gu	-1081
▁'	-1082
athi	-1083
▁kaise	-1084
uv	-1085
▁Cong	-1086
▁Kashmir	-1087
▁Agar	-1088
oll	-1089
▁sakta	-1090
▁Ali	-1091
▁modi	-1092
par	-1093
▁Sun	-1094
▁ImranKhanPTI	-1095
▁jai	-1096
▁Mus	-1097
dul	-1098
oom	-1099
▁10	-1100
▁sup	-1101
▁soch	-1102
qt	-1103
▁en	-1104
jp	-1105
▁Aj	-1106
chaud	-1107
▁hind	-1108
24	-1109
▁this	-1110
nay	-1111
AS	-1112
16	-1113
▁Mere	-1114
alik	-1115
hel	-1116
▁Chu	-1117
▁Bo	-1118
TS	-1119
bh	-1120
isha	-1121
▁tou	-1122
▁Ch	-1123
▁bs	-1124
hry	-1125
▁han	-1126
▁trend	-1127
88	-1128
▁real	-1129
▁pic	-1130
▁Jan	-1131
03	-1132
hand	-1133
lease	-1134
▁fr	-1135
▁aw	-1136
tr	-1137
▁Kam	-1138
▁bai	-1139
Ma	-1140
riya	-1141
▁Are	-1142
▁zar	-1143
ci	-1144
25	-1145
▁hone	-1146
45	-1147
▁id	-1148
irth	-1149
ys	-1150
Sid	-1151
▁jaan	-1152
▁hay	-1153
05	-1154
▁jay	-1155
Al	-1156
▁itni	-1157
▁Viv	-1158
▁dekha	-1159
unj	-1160
HAN	-1161
ell	-1162
hum	-1163
▁dekho	-1164
AB	-1165
▁with	-1166
▁🔥	-1167
▁Vi	-1168
▁ny	-1169
26	-1170
▁😭	-1171
esa	-1172
olice	-1173
▁kyun	-1174
UN	-1175
tw	-1176
▁ud	-1177
bs	-1178
▁chi	-1179
▁see	-1180
ite	-1181
▁He	-1182
▁poo	-1183
▁hoon	-1184
hree	-1185
HAR	-1186
fess	-1187
▁Teri	-1188
▁are	-1189
▁hogi	-1190
77	-1191
▁hue	-1192
▁bet	-1193
▁bro	-1194
▁dono	-1195
▁Kal	-1196
▁love	-1197
▁😂😂😂😂	-1198
▁9	-1199
dy	-1200
aaa	-1201
ashami	-1202
uka	-1203
ilm	-1204
▁Salman	-1205
thi	-1206
08	-1207
▁wal	-1208
orning	-1209
▁Jin	-1210
aja	-1211
Shah	-1212
wab	-1213
▁yaa	-1214
vie	-1215
kal	-1216
▁hal	-1217
▁Jis	-1218
gt	-1219
haan	-1220
▁Sat	-1221
▁um	-1222
▁Mahara	-1223
▁aik	-1224
kk	-1225
▁Mein	-1226
the	-1227
▁😁	-1228
▁Li	-1229
▁tm	-1230
indi	-1231
▁hona	-1232
jri	-1233
harm	-1234
▁hm	-1235
apa	-1236
jo	-1237
▁“	-1238
iaz	-1239
bb	-1240
▁ach	-1241
▁sh	-1242
▁sal	-1243
▁Han	-1244
▁use	-1245
UM	-1246
▁sk	-1247
yat	-1248
irthday	-1249
▁!!	-1250
▁sp	-1251
▁krna	-1252
▁lu	-1253
ld	-1254
med	-1255
▁San	-1256
▁dena	-1257
hnaaz	-1258
for	-1259
int	-1260
▁Shri	-1261
lab	-1262
▁dal	-1263
▁Kabhi	-1264
▁gar	-1265
ight	-1266
▁fans	-1267
hon	-1268
pal	-1269
hte	-1270
▁Amit	-1271
▁pta	-1272
06	-1273
😍😍	-1274
▁*	-1275
▁ir	-1276
ute	-1277
oshi	-1278
ctor	-1279
▁tarah	-1280
vin	-1281
▁Shiv	-1282
▁aata	-1283
▁Bharat	-1284
▁sat	-1285
▁Vivo	-1286
▁pl	-1287
vind	-1288
jriwal	-1289
▁mul	-1290
so	-1291
unga	-1292
ze	-1293
kha	-1294
▁sad	-1295
ole	-1296
04	-1297
sar	-1298
For	-1299
yee	-1300
him	-1301
yad	-1302
una	-1303
▁La	-1304
use	-1305
▁lg	-1306
kam	-1307
adhe	-1308
▁kat	-1309
▁|	-1310
▁beh	-1311
liye	-1312
▁aaya	-1313
▁Thank	-1314
OR	-1315
▁Ta	-1316
Ke	-1317
YA	-1318
ble	-1319
▁dus	-1320
▁that	-1321
hira	-1322
elhi	-1323
▁akshay	-1324
SHAY	-1325
▁can	-1326
▁Da	-1327
▁chai	-1328
ery	-1329
▁🙄	-1330
▁fawad	-1331
▁Te	-1332
▁shi	-1333
▁Jay	-1334
HE	-1335
ord	-1336
▁You	-1337
rah	-1338
▁just	-1339
chaudhry	-1340
▁logon	-1341
TA	-1342
shtra	-1343
▁AKSHAY	-1344
hani	-1345
▁kan	-1346
▁bach	-1347
tain	-1348
aga	-1349
wari	-1350
char	-1351
▁nak	-1352
33	-1353
Official	-1354
amil	-1355
▁En	-1356
▁kak	-1357
hashtag	-1358
mention	-1359
▁ur	-1360
▁khush	-1361
▁Sidharth	-1362
▁bak	-1363
▁gha	-1364
▁Fa	-1365
▁ala	-1366
69	-1367
Na	-1368
aah	-1369
▁Maa	-1370
▁has	-1371
27	-1372
tin	-1373
▁san	-1374
rit	-1375
▁ANI	-1376
ond	-1377
SS	-1378
kash	-1379
▁Mad	-1380
▁Tr	-1381
Riaz	-1382
pur	-1383
▁Bahut	-1384
ult	-1385
▁Wah	-1386
▁all	-1387
▁8	-1388
UR	-1389
▁lar	-1390
000	-1391
ca	-1392
▁was	-1393
Ar	-1394
aba	-1395
▁Bi	-1396
Gandhi	-1397
kan	-1398
▁HAI	-1399
▁raat	-1400
▁pan	-1401
▁Haan	-1402
▁kay	-1403
▁Kiya	-1404
hya	-1405
29	-1406
▁Go	-1407
▁Twitter	-1408
▁maar	-1409
▁raj	-1410
28	-1411
▁AL	-1412
▁yahi	-1413
▁Ah	-1414
▁Tere	-1415
far	-1416
▁star	-1417
▁jyada	-1418
▁Adi	-1419
▁fawadchaudhry	-1420
eee	-1421
▁aaye	-1422
▁hn	-1423
▁Mat	-1424
haram	-1425
hoo	-1426
agal	-1427
ero	-1428
▁khi	-1429
▁fan	-1430
▁dm	-1431
▁jit	-1432
po	-1433
pan	-1434
mber	-1435
ussa	-1436
rishna	-1437
▁mei	-1438
ink	-1439
Ba	-1440
ome	-1441
▁aye	-1442
umb	-1443
▁tau	-1444
▁ash	-1445
tik	-1446
yak	-1447
saan	-1448
▁video	-1449
▁bhag	-1450
▁Sana	-1451
▁jar	-1452
ray	-1453
arak	-1454
ees	-1455
▁BTS	-1456
ukla	-1457
55	-1458
endra	-1459
▁Love	-1460
▁zindagi	-1461
▁py	-1462
___	-1463
▁Bol	-1464
▁DE	-1465
▁Muj	-1466
has	-1467
▁apko	-1468
▁pai	-1469
▁chala	-1470
MI	-1471
▁Kisi	-1472
ear	-1473
▁😭😭	-1474
▁kaa	-1475
▁Bas	-1476
▁ai	-1477
▁jao	-1478
▁Apne	-1479
udi	-1480
gn	-1481
▁th	-1482
raa	-1483
▁??	-1484
▁dost	-1485
DI	-1486
▁Mi	-1487
▁eh	-1488
unt	-1489
▁pri	-1490
▁best	-1491
▁Pr	-1492
his	-1493
▁dho	-1494
qi	-1495
aru	-1496
▁AB	-1497
▁pass	-1498
▁kaun	-1499
......	-1500
HU	-1501
yun	-1502
▁bl	-1503
▁usko	-1504
hay	-1505
utt	-1506
aram	-1507
▁Bad	-1508
▁Hindu	-1509
▁duniya	-1510
▁__	-1511
▁not	-1512
AP	-1513
sion	-1514
akistani	-1515
ted	-1516
laa	-1517
▁jati	-1518
▁♂	-1519
eni	-1520
▁mang	-1521
▁uske	-1522
48	-1523
Re	-1524
▁Phir	-1525
▁deta	-1526
▁waqt	-1527
▁God	-1528
pr	-1529
▁bacha	-1530
of	-1531
▁:(	-1532
▁Nam	-1533
▁bta	-1534
▁Log	-1535
▁galat	-1536
▁Toh	-1537
▁khara	-1538
▁akshaykumar	-1539
rab	-1540
▁aajtak	-1541
▁🤔	-1542
▁jayega	-1543
inda	-1544
▁KI	-1545
▁bada	-1546
eef	-1547
😂😂😂😂	-1548
rr	-1549
iz	-1550
▁big	-1551
20	-1552
97	-1553
ary	-1554
▁jana	-1555
▁Ag	-1556
▁aya	-1557
sy	-1558
ili	-1559
uf	-1560
▁sach	-1561
HO	-1562
▁Le	-1563
▁Desh	-1564
▁ladki	-1565
chu	-1566
▁es	-1567
▁dhan	-1568
▁rah	-1569
▁dete	-1570
▁aad	-1571
▁pyar	-1572
▁pee	-1573
,,	-1574
▁ata	-1575
dev	-1576
iler	-1577
🙏🙏	-1578
▁sakte	-1579
angg	-1580
hid	-1581
▁tujhe	-1582
ekin	-1583
▁Hahaha	-1584
▁ay	-1585
shukla	-1586
▁Sub	-1587
▁♀	-1588
▁by	-1589
▁x	-1590
▁res	-1591
une	-1592
jan	-1593
▁Gur	-1594
LAH	-1595
ction	-1596
▁Rashami	-1597
▁sidharth	-1598
der	-1599
qat	-1600
De	-1601
98	-1602
▁Good	-1603
yed	-1604
▁krta	-1605
▁its	-1606
ike	-1607
go	-1608
gain	-1609
▁tra	-1610
▁day	-1611
▁app	-1612
▁Iam	-1613
urn	-1614
▁sarkar	-1615
singh	-1616
▁karke	-1617
▁Ghar	-1618
Me	-1619
▁war	-1620
▁Shukla	-1621
▁Mas	-1622
▁100	-1623
▁Raha	-1624
▁insan	-1625
▁pyaar	-1626
▁bh	-1627
▁aati	-1628
▁chale	-1629
▁Far	-1630
▁Kit	-1631
min	-1632
she	-1633
abad	-1634
▁Cho	-1635
68	-1636
aji	-1637
yap	-1638
▁haha	-1639
▁aapko	-1640
▁Arvind	-1641
habbat	-1642
786	-1643
▁kitna	-1644
▁may	-1645
▁bus	-1646
▁nya	-1647
▁than	-1648
mal	-1649
maan	-1650
jiye	-1651
uti	-1652
dd	-1653
EN	-1654
▁movie	-1655
▁Pak	-1656
Go	-1657
MAN	-1658
▁tal	-1659
▁nazar	-1660
▁🙏🙏	-1661
▁yaha	-1662
▁Mr	-1663
▁😊	-1664
▁Woh	-1665
▁Akshay	-1666
riend	-1667
007	-1668
▁Gandhi	-1669
ory	-1670
wer	-1671
▁yar	-1672
▁bn	-1673
▁chee	-1674
▁tumhe	-1675
▁ex	-1676
adha	-1677
▁bang	-1678
atha	-1679
▁Lag	-1680
▁Sup	-1681
▁ok	-1682
▁Sal	-1683
▁hee	-1684
▁Ok	-1685
▁ve	-1686
▁back	-1687
▁sard	-1688
95	-1689
▁krne	-1690
inn	-1691
ire	-1692
▁INC	-1693
🇮🇳	-1694
asa	-1695
▁chutiya	-1696
▁But	-1697
Ali	-1698
▁pah	-1699
▁kahan	-1700
adu	-1701
gh	-1702
▁uski	-1703
zad	-1704
▁Kis	-1705
▁Sh	-1706
▁sabar	-1707
amir	-1708
▁hindu	-1709
iso	-1710
▁Peh	-1711
▁allah	-1712
▁party	-1713
lic	-1714
▁jee	-1715
▁samajh	-1716
aik	-1717
▁Sw	-1718
old	-1719
ron	-1720
With	-1721
vel	-1722
hiya	-1723
twt	-1724
▁gand	-1725
bu	-1726
▁son	-1727
mm	-1728
▁major	-1729
ks	-1730
ado	-1731
▁Kap	-1732
lock	-1733
▁karti	-1734
▁Do	-1735
now	-1736
▁Tak	-1737
ose	-1738
▁Oh	-1739
▁iams	-1740
▁cr	-1741
▁mila	-1742
▁gy	-1743
▁pho	-1744
ishi	-1745
▁bilkul	-1746
Is	-1747
kari	-1748
akshi	-1749
▁sana	-1750
▁Paras	-1751
▁bahar	-1752
▁dia	-1753
▁uska	-1754
sam	-1755
▁Tera	-1756
▁tara	-1757
▁😜	-1758
omo	-1759
▁maz	-1760
ft	-1761
lu	-1762
▁media	-1763
mp	-1764
bal	-1765
▁vote	-1766
Asim	-1767
▁from	-1768
ube	-1769
akar	-1770
val	-1771
▁Tar	-1772
pra	-1773
▁achi	-1774
▁My	-1775
▁Gaya	-1776
▁twitter	-1777
▁😅	-1778
ence	-1779
wk	-1780
▁dos	-1781
▁tan	-1782
iri	-1783
▁khel	-1784
47	-1785
UT	-1786
▁one	-1787
OIndia	-1788
▁Rashmi	-1789
ES	-1790
taa	-1791
▁Indian	-1792
eech	-1793
tiye	-1794
▁AmitShah	-1795
inder	-1796
▁raho	-1797
IL	-1798
iki	-1799
▁bhak	-1800
▁bal	-1801
43	-1802
65	-1803
▁Sri	-1804
▁dai	-1805
2019	-1806
▁lena	-1807
▁shuru	-1808
cy	-1809
sin	-1810
tions	-1811
▁lagi	-1812
▁waj	-1813
▁Acha	-1814
▁show	-1815
▁kai	-1816
▁ALLAH	-1817
🤣🤣🤣	-1818
agga	-1819
▁Si	-1820
tt	-1821
▁Dhan	-1822
▁saa	-1823
▁Pi	-1824
▁aku	-1825
▁Kyu	-1826
▁NAM	-1827
▁pur	-1828
hyun	-1829
▁Son	-1830
▁Pat	-1831
▁kuchh	-1832
IR	-1833
▁zyada	-1834
meen	-1835
▁pura	-1836
Fa	-1837
orld	-1838
▁hog	-1839
Kumar	-1840
▁film	-1841
▁walo	-1842
▁Lekin	-1843
Kejriwal	-1844
anga	-1845
▁mak	-1846
▁news	-1847
▁var	-1848
wara	-1849
jh	-1850
▁yu	-1851
▁mile	-1852
▁sc	-1853
▁ArvindKejriwal	-1854
vo	-1855
▁gay	-1856
▁rep	-1857
gaura	-1858
AJ	-1859
Lo	-1860
pat	-1861
▁yahan	-1862
▁KAR	-1863
▁jaldi	-1864
▁Chal	-1865
Mo	-1866
adar	-1867
▁Diwali	-1868
▁hamare	-1869
ual	-1870
123	-1871
▁op	-1872
▁char	-1873
▁Maine	-1874
▁khushi	-1875
ait	-1876
▁Congress	-1877
21	-1878
▁And	-1879
wat	-1880
lesh	-1881
▁sud	-1882
ps	-1883
▁Fir	-1884
▁his	-1885
harif	-1886
▁khatam	-1887
shq	-1888
varya	-1889
▁Sidd	-1890
gauravarya	-1891
▁majorgauravarya	-1892
▁Naam	-1893
wn	-1894
▁tuj	-1895
▁cong	-1896
con	-1897
ange	-1898
▁bolo	-1899
ku	-1900
err	-1901
▁Bar	-1902
▁dim	-1903
▁des	-1904
oos	-1905
▁muh	-1906
▁Kon	-1907
▁mam	-1908
▁Yaar	-1909
▁jagah	-1910
▁:)	-1911
▁ul	-1912
ance	-1913
aaaa	-1914
She	-1915
▁phr	-1916
▁😍😍	-1917
▁tag	-1918
▁km	-1919
aal	-1920
hane	-1921
tional	-1922
tan	-1923
▁tk	-1924
▁hath	-1925
▁tumhare	-1926
▁kara	-1927
▁dr	-1928
96	-1929
🔥🔥	-1930
▁Shi	-1931
▁support	-1932
ida	-1933
abangg	-1934
hary	-1935
▁thik	-1936
RI	-1937
▁tw	-1938
Se	-1939
Desai	-1940
▁beta	-1941
▁pakistan	-1942
osh	-1943
upta	-1944
▁RahulGandhi	-1945
way	-1946
▁anj	-1947
▁mal	-1948
ism	-1949
nk	-1950
ubarak	-1951
▁iamsrk	-1952
osi	-1953
peak	-1954
▁Dar	-1955
▁😌	-1956
▁Ban	-1957
▁mee	-1958
IND	-1959
▁hen	-1960
▁Muslim	-1961
Am	-1962
ALMAN	-1963
bri	-1964
▁isko	-1965
▁Ay	-1966
▁mandi	-1967
wai	-1968
▁Vo	-1969
Raj	-1970
▁bht	-1971
US	-1972
▁sik	-1973
▁chod	-1974
▁him	-1975
▁Bhag	-1976
▁bura	-1977
iii	-1978
▁utha	-1979
▁bc	-1980
▁Him	-1981
ved	-1982
▁nh	-1983
guru	-1984
▁jeet	-1985
▁😎	-1986
▁maine	-1987
CH	-1988
bra	-1989
▁Kia	-1990
Kh	-1991
Gill	-1992
▁tumhari	-1993
Ro	-1994
▁aag	-1995
▁paas	-1996
▁ins	-1997
▁Abe	-1998
▁nee	-1999
▁nay	-2000
arish	-2001
▁bole	-2002
▁mujh	-2003
▁Nik	-2004
▁chah	-2005
▁Mil	-2006
▁pal	-2007
son	-2008
▁bb	-2009
▁chho	-2010
ven	-2011
▁mn	-2012
pl	-2013
▁rt	-2014
▁bna	-2015
▁At	-2016
▁sai	-2017
ister	-2018
▁alag	-2019
▁PMOIndia	-2020
lap	-2021
led	-2022
▁dhe	-2023
▁😒	-2024
▁Khud	-2025
▁theek	-2026
▁Shu	-2027
▁your	-2028
▁chup	-2029
Cha	-2030
▁nu	-2031
66	-2032
ju	-2033
ump	-2034
▁Zindagi	-2035
gu	-2036
dit	-2037
▁wap	-2038
amb	-2039
▁Sant	-2040
Day	-2041
▁SH	-2042
▁asim	-2043
ves	-2044
▁bu	-2045
▁too	-2046
▁SidharthShukla	-2047
kat	-2048
ool	-2049
▁Don	-2050
▁Hu	-2051
reat	-2052
uji	-2053
anat	-2054
ady	-2055
▁cheez	-2056
art	-2057
93	-2058
▁Shah	-2059
▁nd	-2060
▁🤣🤣🤣	-2061
here	-2062
▁sahab	-2063
Ha	-2064
▁Dekh	-2065
▁wahi	-2066
▁क	-2067
▁good	-2068
▁Om	-2069
▁kah	-2070
▁kahi	-2071
▁du	-2072
▁yo	-2073
ussain	-2074
tey	-2075
▁SRK	-2076
▁hein	-2077
uth	-2078
▁NA	-2079
▁sabse	-2080
▁Bilkul	-2081
adit	-2082
▁maza	-2083
▁hel	-2084
So	-2085
▁kharab	-2086
▁pasand	-2087
▁TO	-2088
hammad	-2089
▁likh	-2090
oori	-2091
▁pay	-2092
▁Pe	-2093
30	-2094
nu	-2095
log	-2096
▁Delhi	-2097
▁Singh	-2098
tive	-2099
▁diye	-2100
waisi	-2101
▁dikh	-2102
▁song	-2103
▁samjh	-2104
ful	-2105
cr	-2106
▁Dun	-2107
▁bane	-2108
▁sw	-2109
Sharma	-2110
▁pagal	-2111
SRK	-2112
air	-2113
ueen	-2114
orry	-2115
▁Maharashtra	-2116
weets	-2117
▁post	-2118
ude	-2119
▁bina	-2120
▁gye	-2121
tika	-2122
▁Zee	-2123
St	-2124
▁Baat	-2125
94	-2126
▁ik	-2127
illa	-2128
▁please	-2129
▁Taj	-2130
▁yah	-2131
▁salam	-2132
83	-2133
dhi	-2134
UL	-2135
qa	-2136
▁paise	-2137
Ja	-2138
hutto	-2139
▁life	-2140
▁again	-2141
▁~	-2142
▁Ash	-2143
▁dha	-2144
▁INCIndia	-2145
▁team	-2146
▁KO	-2147
aag	-2148
iyat	-2149
▁india	-2150
▁justv	-2151
Pa	-2152
andey	-2153
ekhyun	-2154
▁Can	-2155
ip	-2156
▁lage	-2157
▁Mal	-2158
umbai	-2159
▁af	-2160
▁aapne	-2161
▁ghu	-2162
▁aapke	-2163
▁jam	-2164
sk	-2165
▁Je	-2166
▁justvoot	-2167
eek	-2168
unjab	-2169
▁jate	-2170
OT	-2171
nav	-2172
▁badi	-2173
▁Kumar	-2174
▁chut	-2175
alu	-2176
61	-2177
wo	-2178
anti	-2179
ARD	-2180
▁fake	-2181
oleena	-2182
▁gyi	-2183
▁tas	-2184
ffice	-2185
chod	-2186
diya	-2187
_1	-2188
▁ang	-2189
▁aage	-2190
▁Official	-2191
▁Pakistani	-2192
63	-2193
▁karwa	-2194
rama	-2195
▁Bab	-2196
▁15	-2197
▁MA	-2198
▁av	-2199
▁mata	-2200
▁puch	-2201
▁rakha	-2202
bas	-2203
oni	-2204
▁PR	-2205
▁Iss	-2206
▁lete	-2207
fan	-2208
▁2019	-2209
▁SE	-2210
▁X	-2211
▁wish	-2212
ARI	-2213
uda	-2214
▁free	-2215
▁taraf	-2216
▁thank	-2217
▁sta	-2218
official	-2219
dk	-2220
tv	-2221
ace	-2222
athy	-2223
On	-2224
lish	-2225
▁Sirf	-2226
▁gali	-2227
IT	-2228
▁SA	-2229
▁bharat	-2230
angi	-2231
VE	-2232
uran	-2233
Ak	-2234
The	-2235
ooo	-2236
▁puri	-2237
ushman	-2238
▁wah	-2239
▁Sai	-2240
▁Su	-2241
▁badal	-2242
Bagga	-2243
illah	-2244
umber	-2245
▁kashmir	-2246
▁mana	-2247
67	-2248
▁bhu	-2249
▁maan	-2250
▁myogi	-2251
▁Follow	-2252
▁apki	-2253
▁sakti	-2254
heb	-2255
ton	-2256
▁haal	-2257
▁janta	-2258
dav	-2259
▁unko	-2260
bad	-2261
▁IS	-2262
▁Shree	-2263
hoot	-2264
▁shadi	-2265
▁Aisa	-2266
44	-2267
▁Ac	-2268
zam	-2269
▁suna	-2270
wala	-2271
kil	-2272
nel	-2273
▁CM	-2274
▁Apni	-2275
▁Krishna	-2276
▁Haa	-2277
xx	-2278
eez	-2279
▁dh	-2280
▁jae	-2281
▁hamesha	-2282
▁Its	-2283
india	-2284
wu	-2285
okjin	-2286
▁likha	-2287
▁baa	-2288
▁kre	-2289
nn	-2290
esh	-2291
▁Guru	-2292
cial	-2293
Tube	-2294
▁krte	-2295
▁Af	-2296
▁CHA	-2297
ublic	-2298
▁fat	-2299
▁AR	-2300
▁Tho	-2301
▁Itna	-2302
▁KHAN	-2303
its	-2304
▁BA	-2305
▁HO	-2306
Ji	-2307
fl	-2308
mas	-2309
uma	-2310
▁50	-2311
▁inko	-2312
pt	-2313
▁Shehnaaz	-2314
Fan	-2315
ameen	-2316
▁dy	-2317
▁YouTube	-2318
▁Radhe	-2319
▁shar	-2320
;&	-2321
201	-2322
kin	-2323
▁Ran	-2324
▁DM	-2325
din	-2326
▁On	-2327
▁bohat	-2328
▁😘	-2329
▁Pri	-2330
▁gho	-2331
▁chud	-2332
▁honge	-2333
▁JAI	-2334
▁matlab	-2335
dik	-2336
▁Islam	-2337
▁Tan	-2338
get	-2339
rad	-2340
▁isliye	-2341
▁Tajinder	-2342
zo	-2343
hesh	-2344
Par	-2345
Sha	-2346
PR	-2347
▁ati	-2348
▁Pro	-2349
wani	-2350
▁miss	-2351
▁Sur	-2352
▁block	-2353
▁dekhne	-2354
▁Thanks	-2355
▁dekhna	-2356
▁UP	-2357
▁aapki	-2358
▁tumhara	-2359
▁za	-2360
▁Tab	-2361
▁aas	-2362
any	-2363
▁bud	-2364
cket	-2365
▁sari	-2366
mu	-2367
ayan	-2368
▁dur	-2369
▁aisi	-2370
▁bhabhi	-2371
▁TajinderBagga	-2372
▁maaf	-2373
▁jaaye	-2374
▁Jal	-2375
jid	-2376
yas	-2377
reen	-2378
▁bare	-2379
yanath	-2380
▁.....	-2381
▁AsimRiaz	-2382
▁bjp	-2383
▁jaisa	-2384
Sidharth	-2385
▁KUM	-2386
Li	-2387
▁om	-2388
ID	-2389
unty	-2390
▁kitne	-2391
▁News	-2392
▁SALMAN	-2393
ayy	-2394
▁unke	-2395
nan	-2396
hant	-2397
▁12	-2398
▁Eng	-2399
lb	-2400
▁bac	-2401
▁dua	-2402
▁khar	-2403
▁myogiadit	-2404
73	-2405
▁usse	-2406
▁insaan	-2407
ANG	-2408
ork	-2409
▁ani	-2410
▁sabhi	-2411
▁larki	-2412
tice	-2413
▁This	-2414
▁boss	-2415
▁iska	-2416
shu	-2417
▁via	-2418
hamdul	-2419
▁myogiadityanath	-2420
▁Diya	-2421
ader	-2422
▁bhej	-2423
RO	-2424
▁😆	-2425
ons	-2426
▁deti	-2427
75	-2428
ght	-2429
per	-2430
▁her	-2431
ishal	-2432
hey	-2433
unny	-2434
▁paa	-2435
▁Aise	-2436
▁mulk	-2437
▁Nar	-2438
▁bade	-2439
▁Mandi	-2440
▁HappyB	-2441
▁Sad	-2442
**	-2443
nam	-2444
▁ph	-2445
▁said	-2446
anaro	-2447
▁thoda	-2448
▁better	-2449
▁shukla	-2450
Ch	-2451
ano	-2452
key	-2453
▁dene	-2454
▁unki	-2455
▁bohot	-2456
▁shree	-2457
▁ms	-2458
blem	-2459
▁Chi	-2460
▁dhu	-2461
▁aane	-2462
▁bhut	-2463
▁Che	-2464
▁agr	-2465
quat	-2466
▁Mahira	-2467
anarohit	-2468
▁sardanarohit	-2469
akhi	-2470
▁fai	-2471
een	-2472
▁Sho	-2473
▁nas	-2474
▁201	-2475
▁laa	-2476
▁new	-2477
chin	-2478
veer	-2479
▁daal	-2480
▁hoja	-2481
fir	-2482
deep	-2483
▁shiv	-2484
menfess	-2485
ars	-2486
▁bt	-2487
▁nih	-2488
▁Chand	-2489
▁morning	-2490
Ki	-2491
▁JA	-2492
very	-2493
▁sabko	-2494
▁Gul	-2495
▁em	-2496
▁happ	-2497
▁yadav	-2498
line	-2499
▁Pata	-2500
Sh	-2501
Mir	-2502
amily	-2503
ardari	-2504
▁kun	-2505
▁priyan	-2506
▁wat	-2507
▁wajah	-2508
yya	-2509
▁Pehle	-2510
▁NAMARD	-2511
▁ri	-2512
▁hamari	-2513
ins	-2514
▁apa	-2515
▁bolte	-2516
▁banda	-2517
▁SHA	-2518
▁Va	-2519
▁mun	-2520
▁KUMAR	-2521
urav	-2522
▁imran	-2523
ele	-2524
▁TV	-2525
▁khe	-2526
atein	-2527
▁kitni	-2528
53	-2529
▁Reham	-2530
▁gad	-2531
▁itne	-2532
▁tweets	-2533
alat	-2534
▁nae	-2535
▁Kyun	-2536
▁have	-2537
▁had	-2538
▁👍	-2539
▁Nai	-2540
▁cap	-2541
les	-2542
desh	-2543
riti	-2544
▁set	-2545
gr	-2546
▁ras	-2547
▁beti	-2548
▁az	-2549
ical	-2550
▁War	-2551
▁denge	-2552
▁Congrat	-2553
dr	-2554
ick	-2555
▁Stay	-2556
▁ake	-2557
▁police	-2558
sht	-2559
▁aate	-2560
▁apny	-2561
▁Nawaz	-2562
MP	-2563
girl	-2564
hang	-2565
▁muk	-2566
Allah	-2567
▁br	-2568
▁mit	-2569
▁sap	-2570
hiladi	-2571
bir	-2572
ima	-2573
▁number	-2574
pk	-2575
▁karenge	-2576
jar	-2577
▁el	-2578
▁Bang	-2579
▁papa	-2580
DE	-2581
jun	-2582
wood	-2583
ania	-2584
ukat	-2585
▁call	-2586
▁jaane	-2587
meet	-2588
▁Maj	-2589
olitic	-2590
▁Devoleena	-2591
▁fav	-2592
▁Siddharth	-2593
▁follo	-2594
▁feel	-2595
▁photo	-2596
Ah	-2597
Tr	-2598
eer	-2599
▁ju	-2600
sad	-2601
IC	-2602
▁Ada	-2603
▁phone	-2604
uja	-2605
▁KE	-2606
▁Sr	-2607
MA	-2608
▁dev	-2609
▁hara	-2610
reak	-2611
shad	-2612
oof	-2613
▁khila	-2614
sat	-2615
▁🔥🔥	-2616
ikas	-2617
RA	-2618
Te	-2619
▁😔	-2620
▁Rub	-2621
▁pani	-2622
▁Desai	-2623
▁Rampal	-2624
vt	-2625
isode	-2626
GA	-2627
pisode	-2628
To	-2629
▁pu	-2630
▁line	-2631
▁pari	-2632
▁Hamid	-2633
illi	-2634
▁Vijay	-2635
NA	-2636
▁samb	-2637
▁yad	-2638
▁Oye	-2639
▁Bs	-2640
▁milta	-2641
dan	-2642
▁Nhi	-2643
▁Yar	-2644
▁Mata	-2645
▁Kai	-2646
▁Karo	-2647
▁Chalo	-2648
▁pahle	-2649
▁karega	-2650
PAK	-2651
▁haq	-2652
▁Kara	-2653
▁dard	-2654
ww	-2655
▁sur	-2656
▁friend	-2657
▁👌	-2658
peaks	-2659
mes	-2660
▁paisa	-2661
tab	-2662
ream	-2663
▁den	-2664
Ti	-2665
ING	-2666
▁tam	-2667
▁dee	-2668
▁hey	-2669
▁birthday	-2670
put	-2671
▁if	-2672
▁ali	-2673
▁Itni	-2674
▁yehi	-2675
fali	-2676
ethi	-2677
▁Kan	-2678
▁jawab	-2679
lapathy	-2680
ban	-2681
▁Has	-2682
change	-2683
Di	-2684
▁kad	-2685
aaj	-2686
▁mon	-2687
▁pre	-2688
▁sare	-2689
▁🥺	-2690
▁week	-2691
cc	-2692
▁TE	-2693
PNews	-2694
▁Bigil	-2695
▁chutiye	-2696
kaar	-2697
La	-2698
!!!!	-2699
▁Alhamdul	-2700
py	-2701
▁Maharaj	-2702
▁Jag	-2703
▁bhool	-2704
tai	-2705
▁haa	-2706
▁Mubarak	-2707
kr	-2708
lt	-2709
▁11	-2710
IK	-2711
▁UN	-2712
ooja	-2713
zzat	-2714
▁Bho	-2715
▁Sak	-2716
▁col	-2717
▁sher	-2718
▁bhaiya	-2719
Vi	-2720
▁♥	-2721
com	-2722
asim	-2723
wers	-2724
▁dah	-2725
▁mt	-2726
▁jane	-2727
▁Kapil	-2728
FC	-2729
heen	-2730
mon	-2731
▁Sanjay	-2732
▁khana	-2733
▁😉	-2734
▁ly	-2735
ekar	-2736
▁beg	-2737
▁krti	-2738
▁problem	-2739
oob	-2740
▁jb	-2741
▁Rab	-2742
▁kiye	-2743
▁🤣🤣🤣🤣	-2744
▁il	-2745
▁leke	-2746
58	-2747
ankh	-2748
▁Mumbai	-2749
ARK	-2750
▁Av	-2751
▁Ur	-2752
▁peace	-2753
▁Nah	-2754
aku	-2755
ple	-2756
boss	-2757
▁Gaye	-2758
▁kali	-2759
JI	-2760
VG	-2761
▁😏	-2762
▁Po	-2763
ian	-2764
chool	-2765
▁bhul	-2766
▁jail	-2767
ulations	-2768
SA	-2769
▁Aye	-2770
▁Yes	-2771
▁muje	-2772
NU	-2773
▁gang	-2774
▁ABPNews	-2775
▁will	-2776
osa	-2777
idhi	-2778
▁BHAR	-2779
Morning	-2780
ral	-2781
▁lie	-2782
▁Apna	-2783
▁Kaha	-2784
92	-2785
LE	-2786
😂🤣	-2787
wana	-2788
Khbri	-2789
▁baki	-2790
▁bolta	-2791
▁TheKhbri	-2792
▁RehamKhan	-2793
🙈🙈	-2794
▁gan	-2795
▁muslim	-2796
▁oh	-2797
▁19	-2798
▁meh	-2799
rahim	-2800
inal	-2801
ular	-2802
▁Meh	-2803
shish	-2804
▁Akki	-2805
▁chat	-2806
adav	-2807
▁paida	-2808
▁our	-2809
ters	-2810
▁mom	-2811
mer	-2812
▁Haq	-2813
▁baba	-2814
▁RA	-2815
▁being	-2816
▁share	-2817
ason	-2818
Be	-2819
▁Star	-2820
▁banaya	-2821
INC	-2822
▁reply	-2823
tima	-2824
▁Lad	-2825
sm	-2826
▁🤦	-2827
____	-2828
adhi	-2829
trong	-2830
tah	-2831
▁CAN	-2832
▁jayegi	-2833
jha	-2834
▁iski	-2835
▁😝	-2836
hhh	-2837
uni	-2838
▁Lagta	-2839
▁HappyBirthday	-2840
▁😀	-2841
▁Var	-2842
▁ghan	-2843
adowaisi	-2844
▁Sabar	-2845
▁accha	-2846
row	-2847
▁Sp	-2848
▁Hel	-2849
▁Min	-2850
▁chak	-2851
▁seri	-2852
▁asadowaisi	-2853
ungi	-2854
▁kur	-2855
atti	-2856
vani	-2857
▁Sach	-2858
ign	-2859
iyaa	-2860
unjabi	-2861
arti	-2862
▁nehi	-2863
KT	-2864
gal	-2865
▁Gha	-2866
zy	-2867
liya	-2868
▁padh	-2869
▁Super	-2870
Hum	-2871
eko	-2872
yeda	-2873
ishra	-2874
▁inte	-2875
AsimRiaz	-2876
Le	-2877
▁rup	-2878
▁usne	-2879
enu	-2880
▁name	-2881
ushkil	-2882
▁Salam	-2883
▁ZeeNews	-2884
railer	-2885
▁AAP	-2886
▁ada	-2887
▁mur	-2888
▁sing	-2889
JAY	-2890
▁uss	-2891
▁Sheh	-2892
▁haath	-2893
▁Din	-2894
▁hamara	-2895
▁ty	-2896
▁dekhe	-2897
▁kap	-2898
▁Dabangg	-2899
50	-2900
▁ae	-2901
dhar	-2902
vish	-2903
▁cham	-2904
▁shri	-2905
▁adi	-2906
▁bolna	-2907
▁jaate	-2908
▁kyo	-2909
▁upar	-2910
OL	-2911
isay	-2912
▁Bak	-2913
▁ila	-2914
▁Bhar	-2915
▁Deep	-2916
▁mari	-2917
▁anjana	-2918
▁Gurmeet	-2919
chal	-2920
mand	-2921
star	-2922
▁roz	-2923
▁Maha	-2924
att	-2925
????	-2926
aman	-2927
zaar	-2928
▁thak	-2929
▁Kr	-2930
▁LI	-2931
yani	-2932
▁game	-2933
▁Trend	-2934
ustan	-2935
▁Gu	-2936
oday	-2937
ents	-2938
▁gir	-2939
▁What	-2940
▁rahy	-2941
▁jaati	-2942
▁out	-2943
lection	-2944
full	-2945
▁bag	-2946
▁Miss	-2947
▁apka	-2948
ayenge	-2949
▁ME	-2950
▁gun	-2951
▁unhe	-2952
oop	-2953
waj	-2954
eeee	-2955
▁mara	-2956
hur	-2957
out	-2958
▁AP	-2959
▁baj	-2960
▁haram	-2961
▁subah	-2962
KH	-2963
▁start	-2964
▁Jit	-2965
▁know	-2966
aty	-2967
iye	-2968
▁Naa	-2969
sharma	-2970
xt	-2971
urt	-2972
▁mood	-2973
▁GodMorning	-2974
▁)	-2975
▁Lol	-2976
▁change	-2977
dhe	-2978
▁lak	-2979
▁’	-2980
Pra	-2981
chha	-2982
▁sala	-2983
▁Ameen	-2984
kashyap	-2985
ramrahim	-2986
gg	-2987
xy	-2988
▁Az	-2989
NE	-2990
anshi	-2991
▁BHARAT	-2992
▁Mandir	-2993
🤣🤣🤣🤣	-2994
Hindi	-2995
▁aurat	-2996
▁Pad	-2997
▁lam	-2998
▁Jaan	-2999
▁chit	-3000
▁dekhi	-3001
oongi	-3002
▁bara	-3003
😁😁	-3004
cle	-3005
▁lia	-3006
▁inki	-3007
▁Dekho	-3008
▁ShehnaazGill	-3009
▁Alhamdulillah	-3010
▁Sum	-3011
▁what	-3012
▁Aik	-3013
▁lene	-3014
▁more	-3015
ln	-3016
apu	-3017
▁aayi	-3018
av	-3019
amy	-3020
andit	-3021
ric	-3022
haya	-3023
▁RSS	-3024
haha	-3025
▁Dear	-3026
54	-3027
asta	-3028
wati	-3029
▁mah	-3030
DH	-3031
UP	-3032
▁dega	-3033
▁StayS	-3034
aan	-3035
ident	-3036
▁open	-3037
▁rish	-3038
▁hoo	-3039
▁House	-3040
rin	-3041
▁door	-3042
ustice	-3043
▁andar	-3044
▁aayega	-3045
▁20	-3046
▁who	-3047
cas	-3048
ney	-3049
yum	-3050
▁Com	-3051
▁dis	-3052
▁asli	-3053
▁kahin	-3054
56	-3055
PK	-3056
ie	-3057
ott	-3058
▁pm	-3059
Modi	-3060
oooo	-3061
roup	-3062
▁Tim	-3063
▁think	-3064
▁warna	-3065
Ya	-3066
cl	-3067
sal	-3068
uck	-3069
▁Bhak	-3070
▁Shil	-3071
▁dimag	-3072
zai	-3073
▁chaiye	-3074
inha	-3075
unch	-3076
▁Gurmeetramrahim	-3077
res	-3078
▁Ex	-3079
▁mum	-3080
▁achha	-3081
hind	-3082
▁StayStrong	-3083
elo	-3084
yush	-3085
▁sara	-3086
rue	-3087
iddi	-3088
▁Best	-3089
▁milega	-3090
▁salman	-3091
lee	-3092
▁Team	-3093
▁leta	-3094
........	-3095
▁anjanaom	-3096
▁Ku	-3097
tish	-3098
▁kee	-3099
▁seokjin	-3100
▁mj	-3101
Year	-3102
▁raut	-3103
chchan	-3104
▁galti	-3105
▁congress	-3106
ita	-3107
▁Mana	-3108
sanjay	-3109
▁aapka	-3110
rar	-3111
▁khat	-3112
▁madam	-3113
lan	-3114
▁ev	-3115
▁now	-3116
▁chin	-3117
▁kese	-3118
▁kehte	-3119
JIN	-3120
▁ana	-3121
▁bes	-3122
▁sec	-3123
▁Matlab	-3124
▁Eh	-3125
▁Ins	-3126
▁mir	-3127
▁gaand	-3128
Ab	-3129
king	-3130
▁help	-3131
YO	-3132
▁St	-3133
▁YA	-3134
yaan	-3135
count	-3136
▁family	-3137
▁hat	-3138
ob	-3139
▁🙂	-3140
▁Ir	-3141
ica	-3142
▁Duniya	-3143
▁isi	-3144
▁aadmi	-3145
▁thodi	-3146
▁Shuk	-3147
▁Tweet	-3148
ort	-3149
▁BC	-3150
▁kamaal	-3151
ार	-3152
ito	-3153
hine	-3154
▁duk	-3155
▁bolne	-3156
aiz	-3157
▁akki	-3158
▁magar	-3159
▁chahta	-3160
▁dekhte	-3161
Tak	-3162
jee	-3163
▁bula	-3164
▁girl	-3165
▁mene	-3166
▁pich	-3167
ONG	-3168
gen	-3169
▁TEAM	-3170
▁lakh	-3171
rithik	-3172
▁khane	-3173
46	-3174
nab	-3175
test	-3176
87	-3177
hra	-3178
▁boo	-3179
▁hin	-3180
▁HamidMir	-3181
▁anjanaomkashyap	-3182
90	-3183
Love	-3184
▁New	-3185
▁Baba	-3186
▁Chan	-3187
▁retweet	-3188
YE	-3189
Bha	-3190
ety	-3191
▁Hussain	-3192
forchange	-3193
ets	-3194
▁cl	-3195
▁qu	-3196
▁hume	-3197
anish	-3198
▁jahan	-3199
▁HamidMirPAK	-3200
▁peaceforchange	-3201
KK	-3202
low	-3203
▁Beta	-3204
▁apke	-3205
▁kbhi	-3206
▁unka	-3207
▁baekhyun	-3208
fiq	-3209
orr	-3210
▁ajay	-3211
▁mag	-3212
▁bahot	-3213
▁ganda	-3214
Malik	-3215
▁Shar	-3216
▁mama	-3217
pati	-3218
rong	-3219
▁Rak	-3220
▁HARI	-3221
▁happy	-3222
Kashmir	-3223
▁mandir	-3224
TAN	-3225
▁May	-3226
ashid	-3227
oorat	-3228
▁pure	-3229
▁kutte	-3230
▁😑	-3231
isy	-3232
Days	-3233
omi	-3234
▁Kut	-3235
▁Mir	-3236
▁dan	-3237
▁ee	-3238
▁Baap	-3239
▁saaf	-3240
▁wait	-3241
dhu	-3242
ande	-3243
▁shan	-3244
▁💕	-3245
ody	-3246
▁Zar	-3247
CB	-3248
araz	-3249
▁200	-3250
▁cute	-3251
▁waise	-3252
▁Rubika	-3253
cke	-3254
▁et	-3255
▁!!!	-3256
khe	-3257
▁hame	-3258
TR	-3259
bl	-3260
▁💔	-3261
▁Jaa	-3262
▁lga	-3263
▁😐	-3264
BA	-3265
▁zi	-3266
atel	-3267
▁500	-3268
▁jha	-3269
apoor	-3270
▁baby	-3271
▁iske	-3272
ated	-3273
▁shah	-3274
▁batao	-3275
Ve	-3276
alla	-3277
shah	-3278
▁samne	-3279
Hai	-3280
oy	-3281
yyy	-3282
ther	-3283
▁add	-3284
▁pun	-3285
▁wohi	-3286
Im	-3287
Un	-3288
▁chil	-3289
▁zinda	-3290
utam	-3291
▁RAM	-3292
▁cri	-3293
oi	-3294
▁Kat	-3295
▁iya	-3296
▁bari	-3297
▁naya	-3298
TE	-3299
▁chand	-3300
Kar	-3301
oman	-3302
▁BHI	-3303
▁aana	-3304
▁haan	-3305
▁Abdul	-3306
hli	-3307
ley	-3308
▁aam	-3309
❤❤	-3310
▁gaali	-3311
▁sharam	-3312
varu	-3313
▁TR	-3314
▁vir	-3315
uh	-3316
ots	-3317
▁1.	-3318
▁PTI	-3319
lywood	-3320
▁chuka	-3321
▁saare	-3322
:(	-3323
😭😭😭	-3324
Liya	-3325
▁kyon	-3326
▁chahe	-3327
51	-3328
▁naf	-3329
▁Aamir	-3330
▁Tujhe	-3331
▁Punjab	-3332
▁dam	-3333
▁naz	-3334
▁sim	-3335
conom	-3336
▁Arey	-3337
▁Mama	-3338
▁dusre	-3339
IP	-3340
br	-3341
yn	-3342
top	-3343
ushi	-3344
ward	-3345
▁Rohit	-3346
▁last	-3347
rip	-3348
▁zal	-3349
▁didi	-3350
▁shakal	-3351
▁MO	-3352
indu	-3353
▁Dua	-3354
▁sale	-3355
▁Karachi	-3356
▁SS	-3357
▁Bal	-3358
▁lol	-3359
▁yuk	-3360
ph	-3361
▁car	-3362
▁waha	-3363
mn	-3364
odhi	-3365
▁sey	-3366
▁rautsanjay	-3367
▁🇮🇳	-3368
▁Isko	-3369
▁guru	-3370
▁mast	-3371
anna	-3372
arif	-3373
▁Pic	-3374
▁Arti	-3375
AG	-3376
▁Neh	-3377
39	-3378
▁iq	-3379
▁Nahin	-3380
49	-3381
bhu	-3382
▁😁😁	-3383
anak	-3384
▁Dho	-3385
▁skta	-3386
▁zara	-3387
udu	-3388
rain	-3389
▁hos	-3390
▁uwu	-3391
error	-3392
▁ishq	-3393
▁+	-3394
▁ghr	-3395
▁lang	-3396
▁jitna	-3397
ats	-3398
ulana	-3399
▁Umar	-3400
athore	-3401
▁walon	-3402
sOf	-3403
▁Ai	-3404
▁BHA	-3405
sheed	-3406
eka	-3407
lot	-3408
▁hr	-3409
▁😡	-3410
▁🤗	-3411
itu	-3412
uto	-3413
▁Gar	-3414
indabad	-3415
uly	-3416
Hear	-3417
eral	-3418
▁Her	-3419
▁ver	-3420
▁Sarkar	-3421
aur	-3422
▁Jaise	-3423
▁jaata	-3424
tum	-3425
ings	-3426
▁Rana	-3427
▁kaya	-3428
▁only	-3429
▁want	-3430
nat	-3431
▁lee	-3432
▁rang	-3433
BD	-3434
▁YE	-3435
nath	-3436
cal	-3437
▁Ut	-3438
▁sol	-3439
▁followers	-3440
bab	-3441
Base	-3442
▁???	-3443
▁Lam	-3444
▁Nee	-3445
▁they	-3446
Liyaquat	-3447
▁gur	-3448
eeqat	-3449
▁Ajay	-3450
▁Kare	-3451
▁Sama	-3452
▁promo	-3453
▁69	-3454
▁mut	-3455
▁yan	-3456
▁dhar	-3457
▁thaa	-3458
😜😜	-3459
Sup	-3460
▁pati	-3461
▁shuk	-3462
▁tumko	-3463
▁RubikaLiyaquat	-3464
tim	-3465
vaa	-3466
▁Insha	-3467
▁sharm	-3468
▁😋	-3469
▁end	-3470
▁same	-3471
▁samjha	-3472
OK	-3473
uku	-3474
▁pap	-3475
▁drama	-3476
kay	-3477
naa	-3478
▁rat	-3479
▁chhod	-3480
▁chalta	-3481
▁Congratulations	-3482
▁gul	-3483
▁JNU	-3484
▁izzat	-3485
uy	-3486
atar	-3487
▁huye	-3488
▁isse	-3489
kum	-3490
ikar	-3491
▁Mam	-3492
▁tujh	-3493
appu	-3494
▁army	-3495
▁rahul	-3496
▁mushkil	-3497
SI	-3498
ten	-3499
bile	-3500
▁Dal	-3501
▁hogaya	-3502
jit	-3503
▁Hey	-3504
▁get	-3505
▁Kaun	-3506
57	-3507
aib	-3508
eth	-3509
▁bech	-3510
▁thay	-3511
▁For	-3512
▁dukh	-3513
▁kafi	-3514
▁halat	-3515
▁Thalapathy	-3516
uss	-3517
▁mr	-3518
▁All	-3519
▁Guj	-3520
▁nahe	-3521
▁Hello	-3522
▁padega	-3523
ojia	-3524
▁0	-3525
Mar	-3526
▁thy	-3527
▁vid	-3528
▁bigg	-3529
DG	-3530
100	-3531
▁shak	-3532
▁rahay	-3533
.......	-3534
uz	-3535
😘😘	-3536
fai	-3537
▁wk	-3538
isal	-3539
▁dub	-3540
▁Was	-3541
▁eng	-3542
▁khuda	-3543
vid	-3544
▁Div	-3545
ukaat	-3546
▁top	-3547
▁ache	-3548
ukhari	-3549
▁2.	-3550
▁sang	-3551
▁bhakt	-3552
▁karni	-3553
▁lekar	-3554
▁Housefull	-3555
rom	-3556
uli	-3557
▁Con	-3558
▁usi	-3559
▁khol	-3560
▁shik	-3561
hav	-3562
▁Kahan	-3563
gy	-3564
daar	-3565
▁Himanshi	-3566
▁PJ	-3567
▁tik	-3568
▁sham	-3569
▁mujhy	-3570
bin	-3571
▁Ras	-3572
▁Rofl	-3573
▁rehta	-3574
▁shayad	-3575
abb	-3576
odh	-3577
rai	-3578
nah	-3579
ache	-3580
odhya	-3581
▁roti	-3582
▁dosti	-3583
▁Bl	-3584
▁JI	-3585
▁Sm	-3586
▁mer	-3587
▁😭😭😭	-3588
64	-3589
say	-3590
sif	-3591
▁boy	-3592
▁aukat	-3593
▁wahan	-3594
020	-3595
jal	-3596
▁qa	-3597
▁banane	-3598
▁Per	-3599
▁tune	-3600
▁jayenge	-3601
wadi	-3602
▁mard	-3603
▁kutta	-3604
lie	-3605
haar	-3606
▁Aam	-3607
▁nah	-3608
▁Chor	-3609
▁म	-3610
▁Khush	-3611
▁inter	-3612
Shehnaaz	-3613
car	-3614
hor	-3615
mai	-3616
▁14	-3617
yana	-3618
▁How	-3619
▁Shan	-3620
kho	-3621
▁See	-3622
▁pel	-3623
adian	-3624
eshan	-3625
▁kaat	-3626
bjp	-3627
ikram	-3628
▁rahega	-3629
Ram	-3630
▁AA	-3631
▁AMI	-3632
▁sans	-3633
oog	-3634
▁Bc	-3635
news	-3636
uman	-3637
▁Raat	-3638
Ad	-3639
esy	-3640
ras	-3641
iran	-3642
lack	-3643
▁ter	-3644
▁gyan	-3645
▁jaga	-3646
▁much	-3647
▁kumar	-3648
▁channel	-3649
▁NE	-3650
▁phe	-3651
gupta	-3652
▁Masha	-3653
▁sawal	-3654
kanojia	-3655
athu	-3656
▁mau	-3657
tertain	-3658
asam	-3659
eshi	-3660
ship	-3661
▁dum	-3662
▁ghum	-3663
▁nama	-3664
Wa	-3665
▁😪	-3666
▁BE	-3667
▁Bro	-3668
▁Kho	-3669
▁full	-3670
▁list	-3671
▁vijay	-3672
Zardari	-3673
▁priyank	-3674
▁PJkanojia	-3675
hadi	-3676
ker	-3677
▁😂😂😂😂😂	-3678
charya	-3679
tel	-3680
wane	-3681
▁Jam	-3682
▁del	-3683
▁baje	-3684
ishwas	-3685
60	-3686
lok	-3687
raf	-3688
rak	-3689
tia	-3690
▁Za	-3691
▁Yahi	-3692
▁sweet	-3693
▁Muhammad	-3694
▁=	-3695
🙏🏻	-3696
▁Hindi	-3697
ST	-3698
▁Keh	-3699
▁kim	-3700
waa	-3701
▁yg	-3702
▁Ask	-3703
▁Bata	-3704
▁Waah	-3705
▁Waise	-3706
▁deh	-3707
▁hot	-3708
▁neta	-3709
▁Karna	-3710
▁Anj	-3711
▁TAN	-3712
▁Saleem	-3713
TH	-3714
tiv	-3715
▁Ria	-3716
Rathore	-3717
elf	-3718
▁fi	-3719
▁yr	-3720
ling	-3721
▁off	-3722
▁padta	-3723
▁yoongi	-3724
▁स	-3725
▁:-	-3726
▁naman	-3727
▁ru	-3728
▁Moh	-3729
Queen	-3730
▁Baar	-3731
▁hari	-3732
▁account	-3733
143	-3734
lyS	-3735
▁rss	-3736
▁sel	-3737
▁bhee	-3738
tif	-3739
uresh	-3740
▁Khuda	-3741
▁baare	-3742
▁lagti	-3743
Ne	-3744
▁abi	-3745
▁behen	-3746
▁neend	-3747
▁Rt	-3748
▁haar	-3749
II	-3750
vn	-3751
rey	-3752
andom	-3753
▁Nikal	-3754
by	-3755
▁😢	-3756
👏👏	-3757
iliye	-3758
▁Pyar	-3759
▁cele	-3760
▁Piyush	-3761
rd	-3762
ways	-3763
▁Mom	-3764
▁fal	-3765
▁pet	-3766
▁Zain	-3767
▁paras	-3768
ms	-3769
bak	-3770
▁Baj	-3771
▁desi	-3772
▁done	-3773
▁randi	-3774
Rashami	-3775
zat	-3776
▁gae	-3777
▁awam	-3778
79	-3779
NS	-3780
▁‘	-3781
▁ng	-3782
▁jese	-3783
▁dijiye	-3784
qui	-3785
usi	-3786
hruv	-3787
▁bik	-3788
▁Rahe	-3789
▁bhad	-3790
Mishra	-3791
▁bache	-3792
agandhi	-3793
▁humare	-3794
▁🙈	-3795
zak	-3796
▁gaa	-3797
▁Band	-3798
▁jaisi	-3799
▁mohabbat	-3800
▁oo	-3801
▁ini	-3802
▁ken	-3803
▁king	-3804
▁Please	-3805
BJP	-3806
EER	-3807
Far	-3808
▁Sus	-3809
▁aai	-3810
▁ise	-3811
▁Yaad	-3812
▁inke	-3813
▁tumne	-3814
▁Hamare	-3815
▁rakhna	-3816
vam	-3817
eera	-3818
indh	-3819
onal	-3820
▁mili	-3821
▁sant	-3822
Anuj	-3823
▁air	-3824
▁Liye	-3825
▁bhot	-3826
▁Kitna	-3827
fri	-3828
ora	-3829
▁Ge	-3830
arat	-3831
▁Sud	-3832
follow	-3833
▁bhagwan	-3834
70	-3835
pect	-3836
▁nic	-3837
indhi	-3838
▁Saint	-3839
▁tabhi	-3840
bd	-3841
ens	-3842
▁Mun	-3843
▁Tuj	-3844
▁ber	-3845
▁Hota	-3846
▁Jana	-3847
▁episode	-3848
DA	-3849
▁😹	-3850
emin	-3851
▁Pre	-3852
ince	-3853
▁Bes	-3854
▁Hal	-3855
▁Dono	-3856
▁mark	-3857
▁priyankagandhi	-3858
ISPR	-3859
adhu	-3860
▁khair	-3861
Za	-3862
itt	-3863
str	-3864
▁😂🤣	-3865
kesh	-3866
▁fil	-3867
▁Sher	-3868
▁Kaise	-3869
▁kunal	-3870
▁banget	-3871
▁👇	-3872
LD	-3873
tya	-3874
hing	-3875
seen	-3876
utosh	-3877
▁leti	-3878
Trailer	-3879
Sar	-3880
sari	-3881
▁try	-3882
ewala	-3883
▁hahaha	-3884
KI	-3885
bag	-3886
▁aao	-3887
sab	-3888
urj	-3889
▁Ti	-3890
haji	-3891
vern	-3892
yegi	-3893
▁lah	-3894
▁mis	-3895
▁Rahi	-3896
▁look	-3897
▁stud	-3898
que	-3899
▁Dm	-3900
▁school	-3901
SE	-3902
ef	-3903
200	-3904
▁30	-3905
aste	-3906
▁Char	-3907
▁person	-3908
CK	-3909
▁—	-3910
nal	-3911
▁kb	-3912
ilal	-3913
mita	-3914
tage	-3915
vers	-3916
▁bin	-3917
▁kahe	-3918
▁pade	-3919
Speaks	-3920
▁group	-3921
esident	-3922
▁koshish	-3923
Man	-3924
chh	-3925
▁Agr	-3926
▁Dur	-3927
▁dhi	-3928
halai	-3929
mb	-3930
ekh	-3931
ulu	-3932
zal	-3933
rita	-3934
rkhan	-3935
▁jhoot	-3936
38	-3937
red	-3938
▁Not	-3939
waraj	-3940
▁Mari	-3941
gan	-3942
yab	-3943
▁[	-3944
Bad	-3945
▁Um	-3946
shit	-3947
▁Mon	-3948
▁lay	-3949
▁idhar	-3950
sang	-3951
yari	-3952
navis	-3953
▁AJAY	-3954
▁sorry	-3955
▁kamaalrkhan	-3956
35	-3957
kit	-3958
pend	-3959
▁tai	-3960
▁Chai	-3961
▁part	-3962
su	-3963
aaf	-3964
can	-3965
ogy	-3966
ramod	-3967
▁Yaha	-3968
▁BBhutto	-3969
KA	-3970
▁RP	-3971
anki	-3972
▁mud	-3973
hatti	-3974
▁waale	-3975
adnavis	-3976
pakistan	-3977
▁comment	-3978
▁Jee	-3979
akhilesh	-3980
76	-3981
Ni	-3982
▁😄	-3983
▁Tm	-3984
jaya	-3985
▁krty	-3986
▁lgta	-3987
▁madar	-3988
▁manaa	-3989
▁nawaz	-3990
▁soo	-3991
habra	-3992
▁CANAD	-3993
:-	-3994
dhan	-3995
heed	-3996
zada	-3997
▁Fan	-3998
▁poor	-3999
▁Nation	-4000
▁BBhuttoZardari	-4001
PP	-4002
jj	-4003
▁Ud	-4004
▁os	-4005
▁Manoj	-4006
▁Kim	-4007
▁TANHA	-4008
▁leader	-4009
▁yadavakhilesh	-4010
omb	-4011
wah	-4012
sinha	-4013
▁Didi	-4014
▁chali	-4015
▁dharm	-4016
▁rakhe	-4017
▁Sharma	-4018
▁Vishal	-4019
vik	-4020
▁Hy	-4021
mani	-4022
Veena	-4023
VeenaKhan	-4024
No	-4025
mol	-4026
▁Ang	-4027
▁Mul	-4028
▁pha	-4029
▁viv	-4030
▁Ishq	-4031
▁adhi	-4032
YearsOf	-4033
Bachchan	-4034
RashamiDesai	-4035
ugh	-4036
yuu	-4037
oker	-4038
▁Ini	-4039
▁iVeenaKhan	-4040
iiii	-4041
▁Mis	-4042
▁case	-4043
▁mazak	-4044
▁troll	-4045
▁shaadi	-4046
nie	-4047
▁sis	-4048
▁Mujh	-4049
▁Madam	-4050
▁Khushi	-4051
▁thanks	-4052
▁English	-4053
▁ह	-4054
iko	-4055
▁24	-4056
naye	-4057
▁That	-4058
▁lund	-4059
▁about	-4060
unn	-4061
hila	-4062
▁babu	-4063
▁utar	-4064
▁word	-4065
▁Pyaar	-4066
▁chahte	-4067
CT	-4068
▁esa	-4069
istan	-4070
▁Syed	-4071
▁hero	-4072
DGISPR	-4073
▁ZeeNewsHindi	-4074
▁sen	-4075
▁Sena	-4076
▁bhos	-4077
▁fail	-4078
▁Tumhe	-4079
▁Haqeeqat	-4080
Mus	-4081
▁Op	-4082
cent	-4083
▁aat	-4084
▁gham	-4085
▁hate	-4086
▁kami	-4087
▁side	-4088
▁aunty	-4089
Sab	-4090
baz	-4091
sed	-4092
▁CH	-4093
▁ca	-4094
aled	-4095
▁bank	-4096
▁dunga	-4097
asti	-4098
▁Aku	-4099
▁honi	-4100
▁join	-4101
▁maal	-4102
▁bakwas	-4103
▁Es	-4104
▁LO	-4105
▁er	-4106
allu	-4107
▁Now	-4108
▁Free	-4109
▁King	-4110
▁every	-4111
ach	-4112
ger	-4113
▁mann	-4114
▁piche	-4115
▁socha	-4116
▁TANHAJI	-4117
▁🤭	-4118
▁ic	-4119
bhas	-4120
llah	-4121
▁god	-4122
antri	-4123
▁jaha	-4124
karann	-4125
▁lai	-4126
▁tod	-4127
▁uth	-4128
▁shit	-4129
▁masjid	-4130
▁dushman	-4131
84	-4132
Mal	-4133
anu	-4134
mun	-4135
▁Pl	-4136
conomy	-4137
YU	-4138
ooh	-4139
pte	-4140
▁uk	-4141
▁Kaa	-4142
▁One	-4143
▁gari	-4144
▁milti	-4145
Da	-4146
abu	-4147
rag	-4148
▁GA	-4149
hala	-4150
hart	-4151
▁Lar	-4152
▁Muk	-4153
▁Sim	-4154
Abb	-4155
adh	-4156
▁13	-4157
▁Reh	-4158
▁dear	-4159
▁Kuchh	-4160
▁right	-4161
▁chitraa	-4162
▁OfficialDGISPR	-4163
BB	-4164
▁ht	-4165
▁wi	-4166
▁Eid	-4167
▁ghal	-4168
▁super	-4169
▁chitraaum	-4170
ict	-4171
band	-4172
▁moh	-4173
▁vis	-4174
▁very	-4175
▁level	-4176
▁Sb	-4177
itra	-4178
wale	-4179
▁Yah	-4180
▁wapas	-4181
▁प	-4182
YUN	-4183
▁au	-4184
chai	-4185
hnaz	-4186
▁Hoga	-4187
▁saab	-4188
Tiwari	-4189
▁Thala	-4190
Tum	-4191
▁cal	-4192
▁rakho	-4193
▁khilaf	-4194
anya	-4195
▁any	-4196
▁make	-4197
72	-4198
Va	-4199
Kru	-4200
yah	-4201
▁Hon	-4202
▁kehna	-4203
▁shubh	-4204
▁target	-4205
▁🤧	-4206
lag	-4207
ooj	-4208
pak	-4209
says	-4210
▁Bat	-4211
▁ruk	-4212
▁Kabir	-4213
▁Tumhari	-4214
▁Aas	-4215
▁dafa	-4216
▁18	-4217
▁Bhu	-4218
▁bani	-4219
▁maha	-4220
▁Ayodhya	-4221
Ta	-4222
Off	-4223
▁uda	-4224
▁Desi	-4225
▁karu	-4226
▁Aditi	-4227
igh	-4228
nai	-4229
ris	-4230
vad	-4231
,...	-4232
▁ndtv	-4233
▁minhee	-4234
Mon	-4235
Nee	-4236
HUSH	-4237
▁Dik	-4238
▁THA	-4239
▁jud	-4240
▁rona	-4241
▁maang	-4242
olitics	-4243
😆😆	-4244
▁HI	-4245
▁YO	-4246
▁uni	-4247
kamra	-4248
▁against	-4249
oro	-4250
wee	-4251
▁ayi	-4252
▁nis	-4253
▁sus	-4254
▁anak	-4255
▁Shehla	-4256
▁Nak	-4257
Goyal	-4258
▁khabar	-4259
▁SrBachchan	-4260
DP	-4261
AAAA	-4262
▁Lak	-4263
▁bul	-4264
▁mahara	-4265
▁Tal	-4266
▁Sand	-4267
▁inka	-4268
▁ajeeb	-4269
▁indian	-4270
89	-4271
▁Bus	-4272
▁SHI	-4273
▁hak	-4274
▁ser	-4275
ision	-4276
▁waja	-4277
▁Asaram	-4278
▁badhai	-4279
▁harami	-4280
▁public	-4281
▁ghatiya	-4282
▁Ri	-4283
huri	-4284
▁sand	-4285
▁ajaydev	-4286
▁🤪	-4287
Cho	-4288
▁tv	-4289
Sena	-4290
▁inn	-4291
By	-4292
zir	-4293
▁Hm	-4294
▁kl	-4295
▁hit	-4296
shwar	-4297
▁Vish	-4298
▁zain	-4299
▁kijiye	-4300
▁Co	-4301
abar	-4302
khat	-4303
▁rhy	-4304
▁smjh	-4305
▁result	-4306
▁kunalkamra	-4307
Si	-4308
kiya	-4309
taka	-4310
▁Ach	-4311
▁ask	-4312
▁Modiji	-4313
IG	-4314
▁;	-4315
udh	-4316
▁MP	-4317
▁hae	-4318
▁rok	-4319
▁Gautam	-4320
At	-4321
NN	-4322
etty	-4323
▁aak	-4324
▁job	-4325
▁kry	-4326
▁tumse	-4327
▁wapis	-4328
Bukhari	-4329
34	-4330
86	-4331
hatt	-4332
▁Bana	-4333
▁jarurat	-4334
▁ajaydevgn	-4335
ayo	-4336
▁zam	-4337
▁hoty	-4338
▁krny	-4339
udhary	-4340
▁speech	-4341
85	-4342
War	-4343
Safi	-4344
▁pake	-4345
▁wkwk	-4346
▁chalo	-4347
▁Aw	-4348
Says	-4349
▁Dee	-4350
▁Lah	-4351
▁age	-4352
▁hei	-4353
ustani	-4354
▁Pagal	-4355
▁Swamy	-4356
▁😬	-4357
boy	-4358
antu	-4359
hail	-4360
▁Ind	-4361
▁emo	-4362
▁isme	-4363
▁play	-4364
▁chori	-4365
▁banana	-4366
Ex	-4367
RE	-4368
tat	-4369
ulad	-4370
▁nad	-4371
▁hogya	-4372
▁story	-4373
af	-4374
▁☺	-4375
▁ip	-4376
▁🤔🤔	-4377
▁Jane	-4378
▁guys	-4379
vealed	-4380
▁ziada	-4381
gend	-4382
qbal	-4383
Sinha	-4384
ander	-4385
ughal	-4386
▁Bach	-4387
▁deep	-4388
▁haii	-4389
▁link	-4390
▁aankh	-4391
▁singh	-4392
▁🥰	-4393
rap	-4394
Alka	-4395
▁chuki	-4396
▁Mohabbat	-4397
AH	-4398
cs	-4399
fo	-4400
▁Yo	-4401
▁tb	-4402
▁Kay	-4403
▁hand	-4404
▁world	-4405
▁Thalai	-4406
▁satguru	-4407
🤔🤔	-4408
asat	-4409
bsurat	-4410
lad	-4411
lat	-4412
▁DEV	-4413
▁bhen	-4414
▁khul	-4415
▁phle	-4416
▁Kamal	-4417
▁kamal	-4418
▁Shilpi	-4419
▁PiyushGoyal	-4420
You	-4421
bul	-4422
uty	-4423
Live	-4424
anam	-4425
▁Saj	-4426
▁Sala	-4427
▁check	-4428
▁great	-4429
▁Bhagwan	-4430
▁Hindustan	-4431
FF	-4432
bhak	-4433
qeen	-4434
▁Lamba	-4435
▁Pooja	-4436
▁boobs	-4437
KhanSafi	-4438
74	-4439
cer	-4440
jesh	-4441
▁bap	-4442
▁got	-4443
▁ten	-4444
Revealed	-4445
chaudhary	-4446
▁Canadian	-4447
▁🤷	-4448
▁Gi	-4449
▁vs	-4450
igar	-4451
▁dog	-4452
Rashid	-4453
▁Sahab	-4454
▁RiaRevealed	-4455
▁SaleemKhanSafi	-4456
UJ	-4457
Pro	-4458
▁Ass	-4459
▁PAK	-4460
▁wai	-4461
▁bahu	-4462
▁actor	-4463
▁beech	-4464
▁lenge	-4465
urjewala	-4466
OM	-4467
dam	-4468
▁Chup	-4469
▁Wala	-4470
ambhir	-4471
asthan	-4472
▁diwali	-4473
▁rssurjewala	-4474
lai	-4475
lar	-4476
▁40	-4477
▁AM	-4478
▁vin	-4479
▁Life	-4480
▁ghus	-4481
▁jald	-4482
▁need	-4483
▁saam	-4484
▁send	-4485
indgi	-4486
▁Wahi	-4487
▁badh	-4488
▁bsdk	-4489
▁dhak	-4490
▁saari	-4491
Krutika	-4492
▁nafrat	-4493
Kal	-4494
boo	-4495
upa	-4496
abhi	-4497
etha	-4498
▁Fans	-4499
▁book	-4500
▁month	-4501
ptember	-4502
▁RealKrutika	-4503
Dev	-4504
joy	-4505
VGAN	-4506
bani	-4507
▁way	-4508
aikum	-4509
▁subha	-4510
▁Chutiya	-4511
101	-4512
gaa	-4513
joshi	-4514
▁anna	-4515
▁fais	-4516
▁banta	-4517
▁Tumhare	-4518
▁TheRashamiDesai	-4519
्र	-4520
oney	-4521
▁khaa	-4522
Kapoor	-4523
pecial	-4524
▁Yahan	-4525
▁guzar	-4526
▁rashmi	-4527
▁single	-4528
gs	-4529
Are	-4530
Min	-4531
SHDE	-4532
▁padi	-4533
▁baaki	-4534
▁gussa	-4535
▁AMISHDE	-4536
King	-4537
▁Wat	-4538
▁mot	-4539
▁WeLove	-4540
▁sudhir	-4541
▁chalega	-4542
SP	-4543
may	-4544
sho	-4545
soul	-4546
till	-4547
▁Hua	-4548
▁ind	-4549
😍😍😍😍	-4550
▁Karne	-4551
▁AMISHDEVGAN	-4552
🚩🚩	-4553
hate	-4554
yyub	-4555
▁sah	-4556
hakur	-4557
▁Aapko	-4558
▁Samaj	-4559
▁ReallyS	-4560
36	-4561
91	-4562
XO	-4563
tri	-4564
sena	-4565
shak	-4566
▁Dha	-4567
▁nir	-4568
▁biwi	-4569
▁here	-4570
▁69000	-4571
▁Insan	-4572
▁DI	-4573
▁ib	-4574
auti	-4575
▁das	-4576
▁Apko	-4577
▁Sath	-4578
▁buri	-4579
▁care	-4580
▁ReallySwara	-4581
Ham	-4582
kad	-4583
ony	-4584
til	-4585
zon	-4586
▁Cap	-4587
▁der	-4588
▁neh	-4589
▁Anna	-4590
▁serious	-4591
▁rh	-4592
▁baith	-4593
▁sehat	-4594
tertainment	-4595
?!	-4596
gha	-4597
▁aq	-4598
unda	-4599
▁awaz	-4600
hassan	-4601
SinghINC	-4602
jaa	-4603
ekha	-4604
waab	-4605
▁ung	-4606
▁Bina	-4607
▁kary	-4608
▁mehn	-4609
▁Payal	-4610
▁dhyan	-4611
▁paani	-4612
▁Mahesh	-4613
zb	-4614
sss	-4615
ANGG	-4616
Army	-4617
▁janam	-4618
▁scene	-4619
Naaz	-4620
heer	-4621
lege	-4622
waan	-4623
▁pya	-4624
gnore	-4625
▁umar	-4626
▁choti	-4627
Out	-4628
wak	-4629
▁GO	-4630
▁let	-4631
▁rkh	-4632
▁Puri	-4633
▁hard	-4634
▁thar	-4635
▁waly	-4636
▁LambaAlka	-4637
rop	-4638
▁Yu	-4639
▁fo	-4640
raha	-4641
▁Lagi	-4642
▁Raja	-4643
▁karen	-4644
▁karoge	-4645
DD	-4646
pai	-4647
▁Th	-4648
▁Gan	-4649
▁Wow	-4650
▁kid	-4651
▁World	-4652
▁apnay	-4653
SHI	-4654
kev	-4655
tas	-4656
▁Kh	-4657
▁ze	-4658
ople	-4659
▁Yaa	-4660
▁mod	-4661
▁sih	-4662
▁sahib	-4663
▁Suresh	-4664
GE	-4665
▁😛	-4666
Gur	-4667
apan	-4668
chay	-4669
vies	-4670
▁ese	-4671
▁saj	-4672
▁Hoti	-4673
▁nega	-4674
▁sama	-4675
▁chahi	-4676
▁Bhaiya	-4677
▁Kejriwal	-4678
▁election	-4679
rl	-4680
jad	-4681
jam	-4682
pas	-4683
▁roj	-4684
▁zul	-4685
▁Media	-4686
▁Pawan	-4687
▁Maryam	-4688
▁salamat	-4689
AKE	-4690
ANA	-4691
jab	-4692
nee	-4693
▁HBD	-4694
▁kri	-4695
▁tay	-4696
क्	-4697
saf	-4698
uuuu	-4699
▁mol	-4700
▁saf	-4701
Hearts	-4702
▁Tarek	-4703
▁pakistani	-4704
amar	-4705
kura	-4706
vita	-4707
▁lab	-4708
ichar	-4709
▁Jaye	-4710
▁task	-4711
▁ed	-4712
▁kaho	-4713
▁vish	-4714
autiful	-4715
▁khayal	-4716
▁Shefali	-4717
CC	-4718
▁🌚	-4719
:30	-4720
elle	-4721
▁DAY	-4722
vijay	-4723
▁Kash	-4724
▁Soch	-4725
▁Uske	-4726
▁boht	-4727
▁mery	-4728
nt	-4729
ATA	-4730
uba	-4731
vas	-4732
▁OM	-4733
▁ns	-4734
able	-4735
▁Lee	-4736
pital	-4737
▁krke	-4738
tok	-4739
Yadav	-4740
▁Army	-4741
▁Hari	-4742
▁admi	-4743
▁conf	-4744
▁Priya	-4745
▁walay	-4746
▁Sariler	-4747
▁RoflGandhi	-4748
Mas	-4749
itha	-4750
▁dey	-4751
▁key	-4752
▁old	-4753
Tweets	-4754
▁Bihar	-4755
▁sikha	-4756
▁......	-4757
▁Sharif	-4758
LI	-4759
▁Gal	-4760
▁ara	-4761
▁sri	-4762
▁Herd	-4763
▁isro	-4764
Ga	-4765
org	-4766
upt	-4767
▁😜😜	-4768
mish	-4769
▁doo	-4770
▁when	-4771
ABANGG	-4772
▁saheb	-4773
Support	-4774
Mu	-4775
▁Jum	-4776
▁Pan	-4777
▁pag	-4778
Ayyub	-4779
▁Video	-4780
▁dunya	-4781
▁shehnaaz	-4782
main	-4783
▁hus	-4784
Fatah	-4785
▁NAHI	-4786
▁pehli	-4787
▁ShilpiSinghINC	-4788
001	-4789
2018	-4790
jaan	-4791
ties	-4792
▁such	-4793
▁Accha	-4794
▁kaisa	-4795
▁Tanhaji	-4796
chn	-4797
ohn	-4798
raz	-4799
▁guz	-4800
adesh	-4801
▁Iska	-4802
▁hair	-4803
▁behan	-4804
▁banega	-4805
▁HU	-4806
▁ama	-4807
▁jhu	-4808
▁tuk	-4809
▁sake	-4810
▁Ahmed	-4811
Har	-4812
anum	-4813
▁bec	-4814
▁guj	-4815
ession	-4816
▁bolti	-4817
▁Bhabhi	-4818
▁Priyan	-4819
AYA	-4820
▁sr	-4821
Girl	-4822
▁Rah	-4823
▁ran	-4824
Today	-4825
▁aaja	-4826
▁desim	-4827
▁gareeb	-4828
▁SiddharthShukla	-4829
JON	-4830
tit	-4831
Soul	-4832
idar	-4833
▁lye	-4834
▁krwa	-4835
▁Bohat	-4836
▁member	-4837
▁sudhirchaudhary	-4838
▁gr	-4839
😭😭😭😭	-4840
▁jaana	-4841
▁Sarileru	-4842
LO	-4843
▁tap	-4844
▁Pawar	-4845
▁kyuki	-4846
▁musalman	-4847
AND	-4848
Real	-4849
▁hoi	-4850
aloch	-4851
▁Only	-4852
▁dila	-4853
▁even	-4854
▁siya	-4855
▁Armaan	-4856
▁HerdHUSH	-4857
NB	-4858
▁🌹	-4859
▁kk	-4860
▁ss	-4861
▁🙄🙄	-4862
cord	-4863
eddy	-4864
less	-4865
▁pls	-4866
▁BARK	-4867
▁idol	-4868
▁kama	-4869
▁Malik	-4870
▁today	-4871
▁🙊	-4872
maa	-4873
ariq	-4874
▁rab	-4875
ution	-4876
▁Hume	-4877
▁pank	-4878
▁year	-4879
pandey	-4880
▁chahye	-4881
▁TarekFatah	-4882
faa	-4883
▁Beh	-4884
▁Nav	-4885
▁comp	-4886
▁hawa	-4887
▁train	-4888
▁udhar	-4889
▁peeche	-4890
▁ashutosh	-4891
AV	-4892
▁Mak	-4893
ondon	-4894
▁Mann	-4895
▁Sang	-4896
kaa	-4897
▁MI	-4898
▁mare	-4899
▁aukaat	-4900
▁Acharya	-4901
▁RanaAyyub	-4902
wy	-4903
with	-4904
▁asa	-4905
▁def	-4906
member	-4907
▁Jahan	-4908
Fadnavis	-4909
mus	-4910
▁IK	-4911
▁||	-4912
▁Hun	-4913
▁VEER	-4914
▁pann	-4915
▁milna	-4916
▁SAM	-4917
anesh	-4918
ojito	-4919
▁islam	-4920
▁season	-4921
aira	-4922
▁Shr	-4923
▁Thi	-4924
▁hata	-4925
▁ashok	-4926
▁pooch	-4927
▁minister	-4928
▁sonakshi	-4929
▁desimojito	-4930
▁betterpakistan	-4931
Jai	-4932
irk	-4933
kon	-4934
▁3.	-4935
🙏🙏🙏	-4936
baaz	-4937
ista	-4938
▁Mah	-4939
▁suk	-4940
Abbas	-4941
▁Like	-4942
▁Khair	-4943
▁Nazar	-4944
▁kisne	-4945
."	-4946
San	-4947
oto	-4948
▁Dus	-4949
▁Res	-4950
▁THE	-4951
▁cam	-4952
ender	-4953
▁Kaam	-4954
▁kuda	-4955
▁under	-4956
kevvaru	-4957
▁captain	-4958
SidShukla	-4959
pee	-4960
udio	-4961
veen	-4962
▁Pah	-4963
▁Pal	-4964
haiya	-4965
▁Baki	-4966
▁Zara	-4967
▁dain	-4968
▁indi	-4969
▁Wal	-4970
▁fur	-4971
▁sum	-4972
Stand	-4973
▁Baad	-4974
▁Divya	-4975
▁Janta	-4976
▁count	-4977
▁kaafi	-4978
▁vikas	-4979
▁KARJON	-4980
▁delete	-4981
Has	-4982
hini	-4983
▁Waqt	-4984
▁then	-4985
37	-4986
bby	-4987
▁Ev	-4988
▁Up	-4989
ased	-4990
▁Sans	-4991
▁khub	-4992
▁marzi	-4993
▁😠	-4994
meer	-4995
▁Tag	-4996
▁ane	-4997
▁Papa	-4998
▁Saath	-4999
▁ayega	-5000
▁khoon	-5001
▁gandhi	-5002
▁chakkar	-5003
My	-5004
▁💪	-5005
▁Ve	-5006
▁rs	-5007
▁bra	-5008
▁did	-5009
▁Done	-5010
▁Song	-5011
▁huwa	-5012
▁Subah	-5013
▁bachi	-5014
▁gandi	-5015
▁unfollow	-5016
59	-5017
vya	-5018
▁Had	-5019
▁bir	-5020
▁nan	-5021
▁Boss	-5022
▁boli	-5023
ckeray	-5024
▁kehta	-5025
▁lanat	-5026
▁thori	-5027
😅😅	-5028
eev	-5029
▁70	-5030
▁Rat	-5031
▁kum	-5032
▁whi	-5033
▁khaya	-5034
gat	-5035
inc	-5036
lip	-5037
▁LEE	-5038
▁🙏🙏🙏	-5039
▁Dost	-5040
▁inhe	-5041
▁parh	-5042
▁hardik	-5043
ikr	-5044
nya	-5045
uld	-5046
▁iP	-5047
rior	-5048
upam	-5049
veri	-5050
▁Car	-5051
▁Bhut	-5052
▁Sara	-5053
Police	-5054
vation	-5055
▁Magar	-5056
▁rehte	-5057
kamnaye	-5058
▁baatein	-5059
ken	-5060
▁27	-5061
▁RE	-5062
hain	-5063
▁loo	-5064
▁darr	-5065
▁state	-5066
HEE	-5067
oya	-5068
▁App	-5069
▁Lal	-5070
▁abb	-5071
▁jun	-5072
ultan	-5073
▁late	-5074
▁jarur	-5075
80	-5076
81	-5077
WA	-5078
kya	-5079
▁yh	-5080
▁Pur	-5081
▁bel	-5082
▁qab	-5083
▁Indi	-5084
▁baja	-5085
▁luck	-5086
▁karay	-5087
--	-5088
🇵🇰	-5089
▁25	-5090
▁Hmm	-5091
▁DESH	-5092
▁Vote	-5093
▁marne	-5094
▁Farhan	-5095
▁Police	-5096
▁👀	-5097
rasa	-5098
▁Day	-5099
▁Upp	-5100
▁nhe	-5101
cause	-5102
▁raja	-5103
😂😂😂😂😂	-5104
▁kasam	-5105
▁zaroor	-5106
hd	-5107
▁AT	-5108
▁int	-5109
▁Rang	-5110
▁doos	-5111
▁SarileruNee	-5112
▁😳	-5113
hre	-5114
pag	-5115
▁aar	-5116
▁pol	-5117
▁yes	-5118
yesha	-5119
▁Ajit	-5120
▁crush	-5121
▁September	-5122
▁NationWith	-5123
EM	-5124
UK	-5125
ان	-5126
▁JO	-5127
Want	-5128
▁pos	-5129
▁date	-5130
▁khus	-5131
▁over	-5132
▁Friend	-5133
AIL	-5134
fat	-5135
▁IM	-5136
shek	-5137
▁rai	-5138
▁Bapu	-5139
▁Same	-5140
▁umeed	-5141
cks	-5142
dict	-5143
enga	-5144
▁awa	-5145
▁yun	-5146
acher	-5147
▁Shik	-5148
▁pada	-5149
▁power	-5150
▁Aditya	-5151
▁mobile	-5152
BI	-5153
ex	-5154
Say	-5155
▁PC	-5156
maal	-5157
▁Abb	-5158
▁Who	-5159
▁jim	-5160
▁red	-5161
▁Anil	-5162
▁ammi	-5163
▁paya	-5164
▁khali	-5165
▁poori	-5166
▁terror	-5167
▁😇	-5168
honi	-5169
rohi	-5170
ubey	-5171
uhan	-5172
▁Mur	-5173
▁act	-5174
▁face	-5175
BHA	-5176
▁Pho	-5177
oshan	-5178
▁Brah	-5179
▁govt	-5180
▁DEVTA	-5181
▁Sumit	-5182
▁samay	-5183
HH	-5184
gad	-5185
jli	-5186
taj	-5187
arth	-5188
▁AUR	-5189
▁Dos	-5190
▁joke	-5191
▁jung	-5192
▁plan	-5193
▁aulad	-5194
▁poora	-5195
▁strong	-5196
Pakistan	-5197
Po	-5198
dee	-5199
▁Rabi	-5200
▁copy	-5201
Bharat	-5202
ATH	-5203
eki	-5204
jaz	-5205
▁Qu	-5206
chat	-5207
indo	-5208
kkkk	-5209
▁raa	-5210
▁waq	-5211
▁Dena	-5212
▁Yogi	-5213
▁nasha	-5214
▁always	-5215
SM	-5216
▁🙌	-5217
ahh	-5218
▁AD	-5219
andu	-5220
naam	-5221
▁dig	-5222
▁lap	-5223
▁Chin	-5224
▁Fake	-5225
▁seed	-5226
▁Waseem	-5227
▁SalmanKhan	-5228
Ur	-5229
uta	-5230
iyaz	-5231
▁Sap	-5232
▁non	-5233
▁Asli	-5234
▁kang	-5235
▁bataya	-5236
▁Baekhyun	-5237
mr	-5238
eno	-5239
MIYA	-5240
your	-5241
▁Uni	-5242
▁put	-5243
▁Abey	-5244
▁kita	-5245
▁krni	-5246
▁poll	-5247
▁subh	-5248
▁badha	-5249
▁salah	-5250
▁humari	-5251
zan	-5252
asir	-5253
rana	-5254
matma	-5255
▁Bohot	-5256
▁delhi	-5257
▁rehti	-5258
▁Dekhiye	-5259
▁ParasCh	-5260
▁Shukriya	-5261
dil	-5262
rav	-5263
ards	-5264
▁koe	-5265
▁take	-5266
▁Sabse	-5267
ely	-5268
pre	-5269
ehra	-5270
▁met	-5271
Media	-5272
ohrab	-5273
▁Babu	-5274
Pramod	-5275
▁Randi	-5276
▁Narendra	-5277
▁Naamkarann	-5278
fr	-5279
kl	-5280
kn	-5281
win	-5282
▁,,	-5283
▁fe	-5284
Shiv	-5285
imal	-5286
▁thu	-5287
▁Chat	-5288
▁Week	-5289
▁road	-5290
▁Sorry	-5291
▁match	-5292
▁there	-5293
Jo	-5294
lia	-5295
rac	-5296
▁SM	-5297
Hind	-5298
▁	-5299
a	-5300
i	-5301
e	-5302
n	-5303
h	-5304
t	-5305
o	-5306
r	-5307
m	-5308
s	-5309
k	-5310
u	-5311
l	-5312
d	-5313
.	-5314
y	-5315
b	-5316
g	-5317
p	-5318
w	-5319
c	-5320
A	-5321
j	-5322
R	-5323
S	-5324
K	-5325
M	-5326
_	-5327
f	-5328
B	-5329
v	-5330
H	-5331
T	-5332
I	-5333
N	-5334
P	-5335
D	-5336
z	-5337
1	-5338
J	-5339
😂	-5340
0	-5341
,	-5342
C	-5343
G	-5344
E	-5345
L	-5346
2	-5347
O	-5348
Y	-5349
?	-5350
3	-5351
U	-5352
9	-5353
W	-5354
!	-5355
4	-5356
V	-5357
7	-5358
5	-5359
F	-5360
8	-5361
q	-5362
6	-5363
/	-5364
🤣	-5365
:	-5366
-	-5367
x	-5368
Z	-5369
"	-5370
😭	-5371
️	-5372
🙏	-5373
😍	-5374
'	-5375
❤	-5376
)	-5377
(	-5378
Q	-5379
🔥	-5380
*	-5381
;	-5382
😁	-5383
&	-5384
X	-5385
😜	-5386
🙄	-5387
ा	-5388
🤔	-5389
🏻	-5390
😅	-5391
😘	-5392
😊	-5393
🙈	-5394
😆	-5395
र	-5396
😌	-5397
😒	-5398
😎	-5399
क	-5400
ا	-5401
’	-5402
😝	-5403
|	-5404
👌	-5405
्	-5406
👍	-5407
😀	-5408
💔	-5409
~	-5410
“	-5411
♥	-5412
😏	-5413
😡	-5414
😔	-5415
💕	-5416
😉	-5417
👏	-5418
🤦	-5419
🥺	-5420
े	-5421
😋	-5422
🌹	-5423
ि	-5424
🤗	-5425
😑	-5426
♂	-5427
😹	-5428
ी	-5429
🙂	-5430
😢	-5431
”	-5432
♀	-5433
न	-5434
🇮	-5435
😐	-5436
त	-5437
🤭	-5438
🇳	-5439
😄	-5440
म	-5441
🚩	-5442
👇	-5443
😪	-5444
स	-5445
%	-5446
🤧	-5447
+	-5448
💖	-5449
ह	-5450
ی	-5451
😠	-5452
🥰	-5453
💪	-5454
ल	-5455
💥	-5456
ं	-5457
😛	-5458
☺	-5459
🤪	-5460
य	-5461
ر	-5462
🙊	-5463
ो	-5464
م	-5465
🙌	-5466
😬	-5467
ن	-5468
😃	-5469
💞	-5470
✌	-5471
द	-5472
प	-5473
🌚	-5474
و	-5475
🏼	-5476
💜	-5477
ل	-5478
😕	-5479
ک	-5480
💐	-5481
ब	-5482
🤷	-5483
😇	-5484
😤	-5485
💃	-5486
ज	-5487
😳	-5488
💯	-5489
س	-5490
🌸	-5491
=	-5492
ग	-5493
श	-5494
व	-5495
😣	-5496
👀	-5497
😥	-5498
💓	-5499
ب	-5500
💋	-5501
💙	-5502
🤩	-5503
😩	-5504
🏽	-5505
✨	-5506
—	-5507
்	-5508
•	-5509
💚	-5510
☹	-5511
🎶	-5512
💦	-5513
🙃	-5514
🌺	-5515
🌷	-5516
😱	-5517
ت	-5518
‘	-5519
💗	-5520
د	-5521
😈	-5522
[	-5523
च	-5524
🖤	-5525
💛	-5526
ु	-5527
]	-5528
ै	-5529
ہ	-5530
😞	-5531
🤘	-5532
ع	-5533
🎉	-5534
🎂	-5535
भ	-5536
ष	-5537
🇵	-5538
❣	-5539
$	-5540
😶	-5541
🇰	-5542
த	-5543
😴	-5544
🥳	-5545
👉	-5546
😫	-5547
ड	-5548
🏾	-5549
🤨	-5550
🙆	-5551
🤤	-5552
😓	-5553
🏃	-5554
♡	-5555
🤓	-5556
🤙	-5557
^	-5558
👊	-5559
थ	-5560
😚	-5561
🍁	-5562
̥	-5563
پ	-5564
🙁	-5565
⠀	-5566
😷	-5567
🥀	-5568
ट	-5569
💘	-5570
👎	-5571
ے	-5572
ध	-5573
ش	-5574
ி	-5575
😻	-5576
🧐	-5577
👅	-5578
✊	-5579
🌼	-5580
🤬	-5581
🤐	-5582
ू	-5583
🖕	-5584
😖	-5585
😟	-5586
अ	-5587
😲	-5588
💀	-5589
आ	-5590
ف	-5591
ख	-5592
👋	-5593
ھ	-5594
👈	-5595
✋	-5596
🌿	-5597
🌻	-5598
ز	-5599
گ	-5600
°	-5601
ம	-5602
🚶	-5603
़	-5604
🤲	-5605
🥴	-5606
।	-5607
😺	-5608
🤮	-5609
🖐	-5610
ன	-5611
🍂	-5612
ए	-5613
😯	-5614
💁	-5615
🙋	-5616
✏	-5617
👑	-5618
🤫	-5619
🤡	-5620
ج	-5621
🍃	-5622
👻	-5623
🤟	-5624
ح	-5625
க	-5626
💩	-5627
🐷	-5628
💝	-5629
진	-5630
🕉	-5631
🏿	-5632
💫	-5633
😰	-5634
😮	-5635
이	-5636
ण	-5637
́	-5638
غ	-5639
چ	-5640
🍫	-5641
ق	-5642
₹	-5643
–	-5644
🤝	-5645
🍀	-5646
ں	-5647
🍌	-5648
🎊	-5649
😼	-5650
⭐	-5651
😨	-5652
💟	-5653
☝	-5654
͡	-5655
ौ	-5656
👆	-5657
🕺	-5658
ٹ	-5659
🙇	-5660
ா	-5661
फ	-5662
ओ	-5663
👄	-5664
🤞	-5665
ई	-5666
✔	-5667
🤢	-5668
✅	-5669
🥵	-5670
̣	-5671
🐢	-5672
☕	-5673
̩	-5674
̀	-5675
🤒	-5676
😵	-5677
ه	-5678
🤯	-5679
🤕	-5680
❌	-5681
🍑	-5682
🎈	-5683
🐖	-5684
👿	-5685
ல	-5686
🎵	-5687
`	-5688
ص	-5689
소	-5690
🌴	-5691
🐍	-5692
ு	-5693
🙉	-5694
ஜ	-5695
🇧	-5696
😾	-5697
🦋	-5698
İ	-5699
⚡	-5700
🇷	-5701
ञ	-5702
😙	-5703
⁦	-5704
✍	-5705
🇦	-5706
🌝	-5707
🐕	-5708
ي	-5709
🇱	-5710
آ	-5711
⁩	-5712
इ	-5713
🌶	-5714
🧡	-5715
خ	-5716
🗣	-5717
🌲	-5718
。	-5719
스	-5720
🍆	-5721
👃	-5722
छ	-5723
ப	-5724
🌟	-5725
😗	-5726
⚘	-5727
ڈ	-5728
\	-5729
எ	-5730
ர	-5731
ள	-5732
👩	-5733
탄	-5734
🇨	-5735
🐑	-5736
ظ	-5737
ய	-5738
방	-5739
우	-5740
🇸	-5741
उ	-5742
🇺	-5743
🍼	-5744
ı	-5745
வ	-5746
💣	-5747
©	-5748
औ	-5749
➡	-5750
😸	-5751
🐶	-5752
👹	-5753
🔔	-5754
🔫	-5755
현	-5756
🎼	-5757
석	-5758
해	-5759
🦁	-5760
ك	-5761
・	-5762
년	-5763
😦	-5764
×	-5765
ழ	-5766
👁	-5767
🙅	-5768
🤑	-5769
아	-5770
🔪	-5771
🍻	-5772
🔱	-5773
̮	-5774
ؑ	-5775
🌕	-5776
🐒	-5777
엑	-5778
지	-5779
🤠	-5780
✈	-5781
단	-5782
🐸	-5783
ئ	-5784
ँ	-5785
ृ	-5786
🚨	-5787
⚽	-5788
민	-5789
세	-5790
🎧	-5791
💨	-5792
🔴	-5793
̆	-5794
니	-5795
📸	-5796
அ	-5797
─	-5798
●	-5799
🌞	-5800
🎁	-5801
🤚	-5802
🇾	-5803
🌈	-5804
ட	-5805
ற	-5806
한	-5807
🎆	-5808
💡	-5809
à	-5810
☻	-5811
❝	-5812
⤵	-5813
🇬	-5814
🇹	-5815
😧	-5816
ɛ	-5817
€	-5818
💆	-5819
💏	-5820
¡	-5821
͜	-5822
원	-5823
🍰	-5824
🚑	-5825
ى	-5826
ை	-5827
😿	-5828
기	-5829
👐	-5830
¿	-5831
📲	-5832
🔁	-5833
ठ	-5834
ン	-5835
김	-5836
📷	-5837
}	-5838
ʖ	-5839
ڑ	-5840
☀	-5841
☆	-5842
다	-5843
🌧	-5844
🎬	-5845
🏆	-5846
👙	-5847
👫	-5848
💎	-5849
🚬	-5850
é	-5851
ü	-5852
👨	-5853
👸	-5854
📍	-5855
🚀	-5856
하	-5857
🍋	-5858
👶	-5859
💌	-5860
💰	-5861
❄	-5862
의	-5863
주	-5864
☠	-5865
⛳	-5866
🐐	-5867
घ	-5868
븐	-5869
🌙	-5870
👽	-5871
{	-5872
🅰	-5873
«	-5874
̃	-5875
̊	-5876
ச	-5877
🥂	-5878
❗	-5879
사	-5880
»	-5881
ç	-5882
🇯	-5883
🍣	-5884
👞	-5885
🤳	-5886
̈	-5887
⚠	-5888
백	-5889
🇩	-5890
🇪	-5891
🇲	-5892
🍓	-5893
가	-5894
는	-5895
🌱	-5896
ñ	-5897
ā	-5898
✧	-5899
🍺	-5900
£	-5901
ง	-5902
⁠	-5903
슈	-5904
🍒	-5905
🎤	-5906
🐱	-5907
🗡	-5908
ط	-5909
ॉ	-5910
❓	-5911
나	-5912
일	-5913
🌠	-5914
🎇	-5915
💉	-5916
🍅	-5917
🐰	-5918
🤛	-5919
ω	-5920
ม	-5921
어	-5922
🏹	-5923
🐥	-5924
>	-5925
̄	-5926
ோ	-5927
❞	-5928
랑	-5929
정	-5930
👦	-5931
🔄	-5932
̶	-5933
͙	-5934
ؤ	-5935
ந	-5936
리	-5937
🔸	-5938
̴	-5939
🌳	-5940
🍵	-5941
🍾	-5942
🐯	-5943
🐿	-5944
📢	-5945
🥃	-5946
🥶	-5947
झ	-5948
ढ	-5949
❥	-5950
🎀	-5951
💑	-5952
💧	-5953
💸	-5954
📿	-5955
🕊	-5956
🚫	-5957
­	-5958
ş	-5959
อ	-5960
‿	-5961
☁	-5962
갓	-5963
승	-5964
을	-5965
재	-5966
타	-5967
🎥	-5968
🏏	-5969
💅	-5970
🤸	-5971
ˆ	-5972
ெ	-5973
⌣	-5974
☘	-5975
ー	-5976
에	-5977
자	-5978
카	-5979
트	-5980
🇭	-5981
🔊	-5982
🤜	-5983
̅	-5984
⚫	-5985
국	-5986
로	-5987
🍧	-5988
🍬	-5989
💍	-5990
📖	-5991
ƪ	-5992
۶	-5993
〈	-5994
몬	-5995
요	-5996
🌊	-5997
🌾	-5998
👭	-5999
💤	-6000
،	-6001
ؐ	-6002
ங	-6003
๑	-6004
♠	-6005
축	-6006
🌍	-6007
🌨	-6008
🔆	-6009
🕋	-6010
ḳ	-6011
☔	-6012
생	-6013
🍈	-6014
👂	-6015
👣	-6016
🔞	-6017
٩	-6018
น	-6019
✩	-6020
ジ	-6021
인	-6022
🎯	-6023
🐎	-6024
💮	-6025
📚	-6026
📺	-6027
🥁	-6028
ವ	-6029
☞	-6030
⬇	-6031
영	-6032
🍊	-6033
🍎	-6034
👮	-6035
😽	-6036
🚴	-6037
á	-6038
ِ	-6039
۔	-6040
്	-6041
ส	-6042
▬	-6043
⚔	-6044
⛈	-6045
い	-6046
유	-6047
윤	-6048
즈	-6049
태	-6050
🎙	-6051
🏵	-6052
🐈	-6053
🔹	-6054
🚮	-6055
🛐	-6056
·	-6057
˂	-6058
˃	-6059
̷	-6060
ᅲ	-6061
♨	-6062
✓	-6063
【	-6064
동	-6065
라	-6066
🎃	-6067
🎗	-6068
🏴	-6069
🐗	-6070
🔨	-6071
🥇	-6072
🦎	-6073
్	-6074
ᴗ	-6075
→	-6076
⋆	-6077
⸝	-6078
강	-6079
시	-6080
🌎	-6081
🐊	-6082
👧	-6083
👬	-6084
🔃	-6085
🕯	-6086
<	-6087
í	-6088
ʃ	-6089
̾	-6090
ऐ	-6091
ก	-6092
แ	-6093
☑	-6094
】	-6095
ア	-6096
와	-6097
퍼	-6098
혁	-6099
🌃	-6100
🐵	-6101
🐻	-6102
󠁧	-6103
ğ	-6104
ร	-6105
ว	-6106
ิ	-6107
่	-6108
ᅠ	-6109
♫	-6110
⚰	-6111
⛄	-6112
베	-6113
희	-6114
🅱	-6115
🇿	-6116
🍉	-6117
🐣	-6118
🐽	-6119
👺	-6120
🖖	-6121
🙍	-6122
🥧	-6123
🧨	-6124
ö	-6125
ด	-6126
◡	-6127
イ	-6128
종	-6129
🇴	-6130
🍇	-6131
🍷	-6132
🎭	-6133
🐂	-6134
🧿	-6135
ó	-6136
ض	-6137
జ	-6138
ల	-6139
ై	-6140
า	-6141
ྂ	-6142
―	-6143
√	-6144
♪	-6145
⚈	-6146
⚪	-6147
비	-6148
호	-6149
🌅	-6150
🌏	-6151
🎸	-6152
👯	-6153
📽	-6154
🦂	-6155
🦱	-6156
ٰ	-6157
ಲ	-6158
ക	-6159
ท	-6160
⃣	-6161
★	-6162
》	-6163
し	-6164
게	-6165
고	-6166
레	-6167
식	-6168
조	-6169
🍦	-6170
🐅	-6171
🐹	-6172
👼	-6173
💬	-6174
🙀	-6175
ˇ	-6176
̲	-6177
ഷ	-6178
ു	-6179
จ	-6180
╥	-6181
▪	-6182
▽	-6183
✖	-6184
❕	-6185
と	-6186
の	-6187
ス	-6188
ミ	-6189
르	-6190
름	-6191
마	-6192
부	-6193
서	-6194
여	-6195
틴	-6196
🍭	-6197
🏍	-6198
👠	-6199
💇	-6200
🔙	-6201
🔝	-6202
🤴	-6203
🦅	-6204
ɔ	-6205
̯	-6206
α	-6207
؟	-6208
॰	-6209
บ	-6210
ย	-6211
金	-6212
경	-6213
규	-6214
버	-6215
수	-6216
신	-6217
줘	-6218
크	-6219
🃏	-6220
🌌	-6221
🌬	-6222
🏙	-6223
🐓	-6224
📞	-6225
🔯	-6226
🚲	-6227
🧂	-6228
Ö	-6229
ॐ	-6230
ஆ	-6231
ค	-6232
ล	-6233
⌓	-6234
╰	-6235
フ	-6236
도	-6237
연	-6238
오	-6239
제	-6240
키	-6241
🌪	-6242
🌵	-6243
🍕	-6244
🍟	-6245
🎨	-6246
🏇	-6247
👤	-6248
💭	-6249
🥊	-6250
🧠	-6251
ã	-6252
ê	-6253
ë	-6254
ء	-6255
ُ	-6256
ಾ	-6257
⁣	-6258
が	-6259
ト	-6260
ョ	-6261
ロ	-6262
대	-6263
더	-6264
려	-6265
미	-6266
박	-6267
성	-6268
은	-6269
장	-6270
🌇	-6271
🌩	-6272
🍨	-6273
🍪	-6274
🏋	-6275
🏣	-6276
🐘	-6277
🐴	-6278
🐼	-6279
👡	-6280
📝	-6281
📻	-6282
🕵	-6283
🚦	-6284
🧀	-6285
🧕	-6286
🧚	-6287
🧟	-6288
🧸	-6289
󠁢	-6290
󠁿	-6291
å	-6292
᷄	-6293
᷅	-6294
⬅	-6295
リ	-6296
바	-6297
범	-6298
실	-6299
알	-6300
투	-6301
티	-6302
🆕	-6303
🍹	-6304
🍿	-6305
🎄	-6306
🐜	-6307
👰	-6308
💢	-6309
🔻	-6310
🕌	-6311
🚽	-6312
🥣	-6313
🦓	-6314
🧘	-6315
®	-6316
ɪ	-6317
అ	-6318
ర	-6319
ు	-6320
ต	-6321
ะ	-6322
ั	-6323
‧	-6324
┊	-6325
╯	-6326
▶	-6327
◝	-6328
◼	-6329
」	-6330
〽	-6331
た	-6332
る	-6333
ク	-6334
テ	-6335
엘	-6336
열	-6337
🆙	-6338
🍏	-6339
🎷	-6340
🏀	-6341
🏄	-6342
🏡	-6343
🏳	-6344
🐾	-6345
👥	-6346
🔵	-6347
🕴	-6348
🗻	-6349
🚆	-6350
🤺	-6351
🦍	-6352
🧔	-6353
Ë	-6354
ä	-6355
̤	-6356
ऋ	-6357
ऑ	-6358
ನ	-6359
್	-6360
เ	-6361
้	-6362
์	-6363
ᴇ	-6364
□	-6365
⚕	-6366
❛	-6367
「	-6368
み	-6369
り	-6370
ん	-6371
ノ	-6372
ャ	-6373
ラ	-6374
祝	-6375
메	-6376
뱀	-6377
산	-6378
최	-6379
표	-6380
행	-6381
훈	-6382
🇻	-6383
🌄	-6384
🍔	-6385
🍯	-6386
🎓	-6387
💱	-6388
💵	-6389
📱	-6390
🔐	-6391
🔒	-6392
🕎	-6393
🛬	-6394
🥒	-6395
ث	-6396
ۂ	-6397
१	-6398
உ	-6399
ป	-6400
ู	-6401
ᅳ	-6402
ᴀ	-6403
↪	-6404
↳	-6405
⌢	-6406
⏰	-6407
⏳	-6408
♦	-6409
う	-6410
っ	-6411
ら	-6412
ニ	-6413
ム	-6414
ル	-6415
問	-6416
碩	-6417
箱	-6418
質	-6419
꒳	-6420
늘	-6421
님	-6422
데	-6423
린	-6424
복	-6425
선	-6426
씨	-6427
애	-6428
약	-6429
응	-6430
전	-6431
찬	-6432
🇫	-6433
🌑	-6434
🌔	-6435
🌛	-6436
🌭	-6437
🍲	-6438
🎮	-6439
🐛	-6440
🐳	-6441
📌	-6442
📣	-6443
📩	-6444
🔗	-6445
🔮	-6446
🔰	-6447
🕳	-6448
🗿	-6449
🚗	-6450
🤖	-6451
🤰	-6452
🦟	-6453
🦸	-6454
🧁	-6455
¶	-6456
÷	-6457
Ş	-6458
Ɛ	-6459
ɑ	-6460
ʚ	-6461
π	-6462
ة	-6463
ذ	-6464
இ	-6465
ே	-6466
ು	-6467
ം	-6468
ന	-6469
സ	-6470
ഹ	-6471
േ	-6472
ข	-6473
ᄉ	-6474
ᄏ	-6475
ọ	-6476
∩	-6477
≦	-6478
≧	-6479
⊃	-6480
╭	-6481
■	-6482
◇	-6483
◐	-6484
◜	-6485
⛩	-6486
⛪	-6487
✡	-6488
✦	-6489
⬆	-6490
〰	-6491
に	-6492
ォ	-6493
ブ	-6494
プ	-6495
一	-6496
珍	-6497
生	-6498
남	-6499
력	-6500
루	-6501
블	-6502
빈	-6503
속	-6504
왕	-6505
철	-6506
폭	-6507
￼	-6508
🌆	-6509
🌽	-6510
🍝	-6511
🍮	-6512
🍳	-6513
🎪	-6514
🎹	-6515
🎻	-6516
🏐	-6517
🐄	-6518
🐭	-6519
🐺	-6520
👟	-6521
💄	-6522
💻	-6523
🔜	-6524
🙎	-6525
🛰	-6526
🤥	-6527
🥕	-6528
🥪	-6529
🦇	-6530
🧢	-6531
󠁥	-6532
󠁮	-6533
@	-6534
À	-6535
ß	-6536
è	-6537
Ĺ	-6538
ń	-6539
ɴ	-6540
ε	-6541
О	-6542
ः	-6543
ੁ	-6544
ஷ	-6545
స	-6546
ฮ	-6547
ี	-6548
โ	-6549
╮	-6550
◞	-6551
☄	-6552
⚖	-6553
⚾	-6554
❎	-6555
❜	-6556
お	-6557
て	-6558
で	-6559
は	-6560
ま	-6561
ウ	-6562
キ	-6563
偲	-6564
战	-6565
肖	-6566
꒰	-6567
꒱	-6568
관	-6569
드	-6570
러	-6571
만	-6572
모	-6573
문	-6574
변	-6575
뷔	-6576
손	-6577
싸	-6578
야	-6579
옹	-6580
준	-6581
중	-6582
프	-6583
︎	-6584
🆔	-6585
🍜	-6586
🏁	-6587
🏎	-6588
🐦	-6589
🐧	-6590
🐩	-6591
👴	-6592
📰	-6593
📹	-6594
🔓	-6595
🔭	-6596
🕷	-6597
🖒	-6598
🗽	-6599
🚣	-6600
🛌	-6601
🛑	-6602
🛩	-6603
🤵	-6604
🤼	-6605
🥘	-6606
🦉	-6607
¢	-6608
Ç	-6609
ì	-6610
ī	-6611
ū	-6612
ɹ	-6613
ʀ	-6614
̧	-6615
σ	-6616
ऊ	-6617
॑	-6618
॥	-6619
ਤ	-6620
ਾ	-6621
พ	-6622
ṅ	-6623
↻	-6624
⇢	-6625
∆	-6626
∇	-6627
⌛	-6628
☃	-6629
⚜	-6630
⛅	-6631
⛏	-6632
⛓	-6633
✳	-6634
❒	-6635
❧	-6636
⭕	-6637
〜	-6638
く	-6639
さ	-6640
ね	-6641
れ	-6642
を	-6643
゚	-6644
ハ	-6645
ヒ	-6646
下	-6647
博	-6648
尾	-6649
王	-6650
笑	-6651
繋	-6652
羽	-6653
각	-6654
긔	-6655
녀	-6656
랙	-6657
멈	-6658
번	-6659
별	-6660
안	-6661
역	-6662
위	-6663
째	-6664
춰	-6665
팬	-6666
핑	-6667
🌘	-6668
🌫	-6669
🍄	-6670
🍛	-6671
🎴	-6672
🏌	-6673
🏚	-6674
🏝	-6675
🏠	-6676
🏤	-6677
🐃	-6678
🐔	-6679
🐮	-6680
🐲	-6681
👵	-6682
👾	-6683
💲	-6684
📄	-6685
🔅	-6686
🔋	-6687
🚒	-6688
🚪	-6689
🤹	-6690
🥄	-6691
🦵	-6692
🦷	-6693
¥	-6694
ò	-6695
ô	-6696
ý	-6697
ġ	-6698
ł	-6699
ż	-6700
ɐ	-6701
˵	-6702
̗	-6703
̫	-6704
҂	-6705
ً	-6706
०	-6707
ਨ	-6708
ਹ	-6709
ਿ	-6710
ஸ	-6711
ం	-6712
బ	-6713
ಪ	-6714
ರ	-6715
ಸ	-6716
ซ	-6717
ุ	-6718
ใ	-6719
ᴛ	-6720
›	-6721
⇒	-6722
∀	-6723
⌚	-6724
┈	-6725
►	-6726
☬	-6727
⛑	-6728
⛷	-6729
⛺	-6730
✯	-6731
❔	-6732
➖	-6733
➸	-6734
⤴	-6735
つ	-6736
ァ	-6737
サ	-6738
タ	-6739
チ	-6740
ナ	-6741
パ	-6742
人	-6743
少	-6744
日	-6745
誕	-6746
글	-6747
날	-6748
를	-6749
림	-6750
머	-6751
물	-6752
션	-6753
워	-6754
파	-6755
포	-6756
플	-6757
형	-6758
🌀	-6759
🌋	-6760
🌜	-6761
🍐	-6762
🎞	-6763
🏢	-6764
🐀	-6765
🐙	-6766
🐚	-6767
🐫	-6768
👒	-6769
👔	-6770
👕	-6771
💊	-6772
💼	-6773
📃	-6774
📅	-6775
📕	-6776
📡	-6777
🔛	-6778
🔶	-6779
🖋	-6780
🗳	-6781
🚂	-6782
🛫	-6783
🤱	-6784
🥋	-6785
🥚	-6786
🥛	-6787
🦄	-6788
🦌	-6789
🧞	-6790
󠁳	-6791
Á	-6792
Å	-6793
É	-6794
ï	-6795
ú	-6796
ď	-6797
đ	-6798
Ɩ	-6799
ʘ	-6800
ʟ	-6801
ˊ	-6802
˶	-6803
̇	-6804
̛	-6805
є	-6806
؏	-6807
ؘ	-6808
ۃ	-6809
ۓ	-6810
۴	-6811
ळ	-6812
র	-6813
া	-6814
ਂ	-6815
ਕ	-6816
ਸ	-6817
ન	-6818
શ	-6819
ூ	-6820
త	-6821
ద	-6822
య	-6823
ా	-6824
ి	-6825
ో	-6826
ಬ	-6827
ช	-6828
ณ	-6829
ห	-6830
ึ	-6831
ื	-6832
ไ	-6833
ᄆ	-6834
ᄎ	-6835
ᐢ	-6836
ᗒ	-6837
ᗕ	-6838
ᴍ	-6839
ᴏ	-6840
−	-6841
∴	-6842
⌒	-6843
⌘	-6844
⌨	-6845
⑅	-6846
◆	-6847
◉	-6848
○	-6849
◠	-6850
☂	-6851
☣	-6852
☽	-6853
♔	-6854
♻	-6855
⛽	-6856
✰	-6857
✱	-6858
✿	-6859
❈	-6860
⸜	-6861
〃	-6862
《	-6863
『	-6864
』	-6865
〒	-6866
す	-6867
ち	-6868
ィ	-6869
オ	-6870
ギ	-6871
シ	-6872
ズ	-6873
ユ	-6874
ワ	-6875
侍	-6876
其	-6877
刃	-6878
妮	-6879
威	-6880
师	-6881
弥	-6882
滅	-6883
烈	-6884
狩	-6885
猪	-6886
玧	-6887
祖	-6888
神	-6889
祭	-6890
蒼	-6891
道	-6892
閔	-6893
鬼	-6894
魔	-6895
같	-6896
개	-6897
것	-6898
까	-6899
너	-6900
답	-6901
두	-6902
뚜	-6903
래	-6904
롱	-6905
룸	-6906
류	-6907
릴	-6908
무	-6909
믿	-6910
배	-6911
브	-6912
상	-6913
샤	-6914
솔	-6915
쉽	-6916
쓰	-6917
용	-6918
있	-6919
초	-6920
치	-6921
쿱	-6922
팅	-6923
향	-6924
헤	-6925
홉	-6926
화	-6927
～	-6928
🍍	-6929
🍚	-6930
🎋	-6931
🎏	-6932
🎩	-6933
🎲	-6934
🏈	-6935
🏛	-6936
🏜	-6937
🏬	-6938
🏮	-6939
🏸	-6940
🐁	-6941
🐉	-6942
🐟	-6943
🐠	-6944
🐤	-6945
👓	-6946
👢	-6947
👪	-6948
💒	-6949
💶	-6950
💺	-6951
💾	-6952
💿	-6953
📁	-6954
📜	-6955
🔺	-6956
🕗	-6957
🕸	-6958
🗼	-6959
🚘	-6960
🛏	-6961
🛴	-6962
🛶	-6963
🤍	-6964
🤶	-6965
🥤	-6966
🥾	-6967
🦆	-6968
🦊	-6969
🦳	-6970
🧓	-6971
🧣	-6972
¦	-6973
Í	-6974
â	-6975
î	-6976
ě	-6977
ň	-6978
ŕ	-6979
ů	-6980
ʍ	-6981
ʼ	-6982
ˋ	-6983
А	-6984
д	-6985
ѳ	-6986
ਮ	-6987
ਰ	-6988
ੀ	-6989
੬	-6990
੭	-6991
ੴ	-6992
క	-6993
డ	-6994
ప	-6995
ూ	-6996
ే	-6997
ಂ	-6998
ದ	-6999
ಿ	-7000
༺	-7001
༻	-7002
ღ	-7003
ᴉ	-7004
ᴊ	-7005
ᴜ	-7006
ᴠ	-7007
ᴡ	-7008
ṭ	-7009
⁄	-7010
⁧	-7011
←	-7012
━	-7013
┐	-7014
☎	-7015
☜	-7016
☪	-7017
☾	-7018
⛰	-7019
⛴	-7020
⛹	-7021
✂	-7022
✴	-7023
✵	-7024
❇	-7025
➴	-7026
、	-7027
こ	-7028
ぱ	-7029
や	-7030
エ	-7031
コ	-7032
ド	-7033
ビ	-7034
マ	-7035
メ	-7036
ヨ	-7037
レ	-7038
全	-7039
前	-7040
器	-7041
女	-7042
孝	-7043
工	-7044
弦	-7045
机	-7046
民	-7047
結	-7048
線	-7049
美	-7050
貼	-7051
감	-7052
그	-7053
금	-7054
께	-7055
끝	-7056
노	-7057
뉴	-7058
들	-7059
디	-7060
말	-7061
면	-7062
밤	-7063
분	-7064
새	-7065
송	-7066
순	-7067
슬	-7068
엠	-7069
예	-7070
절	-7071
친	-7072
컴	-7073
쿠	-7074
텐	-7075
토	-7076
피	-7077
함	-7078
환	-7079
황	-7080
𝄞	-7081
🅿	-7082
🆗	-7083
🆘	-7084
🆚	-7085
🇼	-7086
🌁	-7087
🌂	-7088
🌒	-7089
🌤	-7090
🌮	-7091
🌰	-7092
🍗	-7093
🍡	-7094
🍸	-7095
🍽	-7096
🎰	-7097
🏂	-7098
🏅	-7099
🏗	-7100
🏥	-7101
🏦	-7102
🏫	-7103
🐆	-7104
🐝	-7105
🐬	-7106
👖	-7107
📈	-7108
📯	-7109
📵	-7110
🔑	-7111
🔦	-7112
🔬	-7113
🕐	-7114
🕶	-7115
🗑	-7116
🚟	-7117
🛍	-7118
🤾	-7119
🥔	-7120
🥗	-7121
🥱	-7122
🦈	-7123
🦐	-7124
🦜	-7125
🧬	-7126
🧱	-7127
󠁣	-7128
󠁴	-7129
Ò	-7130
Ø	-7131
Ý	-7132
æ	-7133
ø	-7134
ù	-7135
č	-7136
ē	-7137
Ķ	-7138
ķ	-7139
ĺ	-7140
ř	-7141
ś	-7142
ų	-7143
Ɣ	-7144
ƙ	-7145
Ɲ	-7146
ư	-7147
ɕ	-7148
ɗ	-7149
ɥ	-7150
ɨ	-7151
ʏ	-7152
ʜ	-7153
˅	-7154
̵	-7155
͚	-7156
η	-7157
Є	-7158
а	-7159
в	-7160
к	-7161
ё	-7162
ғ	-7163
ԅ	-7164
Լ	-7165
ؓ	-7166
أ	-7167
َ	-7168
۟	-7169
۩	-7170
۪	-7171
۫	-7172
۵	-7173
݊	-7174
२	-7175
५	-7176
७	-7177
ক	-7178
ম	-7179
ਗ	-7180
ਥ	-7181
ੂ	-7182
ੇ	-7183
੧	-7184
ੱ	-7185
દ	-7186
ર	-7187
્	-7188
૭	-7189
୧	-7190
୨	-7191
ஏ	-7192
ஹ	-7193
ఉ	-7194
న	-7195
మ	-7196
ష	-7197
ಕ	-7198
ಟ	-7199
ಣ	-7200
ಹ	-7201
ೈ	-7202
ฅ	-7203
ถ	-7204
ผ	-7205
ภ	-7206
ฺ	-7207
໋	-7208
༉	-7209
༼	-7210
༽	-7211
ထ	-7212
ာ	-7213
း	-7214
ᄇ	-7215
ለ	-7216
ል	-7217
ሰ	-7218
ን	-7219
ኝ	-7220
አ	-7221
ድ	-7222
ጣ	-7223
ᗣ	-7224
ᗩ	-7225
ᙏ	-7226
ᴅ	-7227
ᴋ	-7228
ᴘ	-7229
ᵎ	-7230
ḍ	-7231
ṛ	-7232
ạ	-7233
Ẹ	-7234
ẹ	-7235
ẽ	-7236
ế	-7237
ố	-7238
ộ	-7239
‐	-7240
‣	-7241
‹	-7242
⁋	-7243
⃑	-7244
⅃	-7245
ↄ	-7246
↓	-7247
↘	-7248
↩	-7249
↬	-7250
∂	-7251
∖	-7252
≠	-7253
⋅	-7254
⋋	-7255
⋌	-7256
⌂	-7257
⌄	-7258
⏬	-7259
⏱	-7260
⏲	-7261
┉	-7262
┛	-7263
┻	-7264
▫	-7265
▷	-7266
▸	-7267
▹	-7268
▿	-7269
◌	-7270
◔	-7271
◕	-7272
◣	-7273
☮	-7274
♎	-7275
♛	-7276
♟	-7277
♣	-7278
♤	-7279
♬	-7280
♯	-7281
⚒	-7282
⚟	-7283
⛸	-7284
✉	-7285
✎	-7286
✝	-7287
✭	-7288
❀	-7289
❁	-7290
❃	-7291
➕	-7292
➢	-7293
➩	-7294
⤷	-7295
⪿	-7296
⫀	-7297
⸼	-7298
〉	-7299
〘	-7300
〙	-7301
〣	-7302
き	-7303
な	-7304
び	-7305
ぽ	-7306
も	-7307
ょ	-7308
わ	-7309
ソ	-7310
ダ	-7311
ッ	-7312
ベ	-7313
中	-7314
伸	-7315
冠	-7316
割	-7317
動	-7318
原	-7319
同	-7320
名	-7321
員	-7322
回	-7323
団	-7324
在	-7325
場	-7326
天	-7327
如	-7328
子	-7329
安	-7330
官	-7331
定	-7332
宜	-7333
尻	-7334
居	-7335
山	-7336
岩	-7337
嵐	-7338
希	-7339
広	-7340
张	-7341
弱	-7342
征	-7343
怡	-7344
恩	-7345
控	-7346
支	-7347
方	-7348
昀	-7349
時	-7350
曜	-7351
曲	-7352
月	-7353
杀	-7354
李	-7355
株	-7356
梓	-7357
正	-7358
段	-7359
沙	-7360
泰	-7361
泳	-7362
満	-7363
漢	-7364
澈	-7365
灿	-7366
狼	-7367
猛	-7368
画	-7369
破	-7370
福	-7371
秘	-7372
穂	-7373
空	-7374
立	-7375
競	-7376
絡	-7377
翰	-7378
莫	-7379
菅	-7380
警	-7381
豪	-7382
賴	-7383
赐	-7384
迪	-7385
途	-7386
部	-7387
間	-7388
限	-7389
霖	-7390
顾	-7391
餃	-7392
香	-7393
龍	-7394
꒶	-7395
ꕊ	-7396
간	-7397
거	-7398
겐	-7399
견	-7400
결	-7401
겸	-7402
공	-7403
귤	-7404
길	-7405
꽃	-7406
녕	-7407
논	-7408
느	-7409
덟	-7410
덧	-7411
득	-7412
란	-7413
런	-7414
링	-7415
막	-7416
망	-7417
맞	-7418
맥	-7419
멜	-7420
받	-7421
발	-7422
벨	-7423
벳	-7424
보	-7425
빛	-7426
삼	-7427
섯	-7428
쇼	-7429
싱	-7430
앤	-7431
양	-7432
언	-7433
업	-7434
없	-7435
엔	-7436
온	-7437
욱	-7438
운	-7439
울	-7440
윈	-7441
입	-7442
잎	-7443
존	-7444
죽	-7445
질	-7446
징	-7447
쩌	-7448
채	-7449
체	-7450
첸	-7451
침	-7452
커	-7453
콘	-7454
쿨	-7455
탱	-7456
터	-7457
팔	-7458
평	-7459
풀	-7460
항	-7461
했	-7462
휘	-7463
𑖁	-7464
𖠵	-7465
𖡩	-7466
🅓	-7467
🅽	-7468
🆂	-7469
🆎	-7470
🇶	-7471
🇽	-7472
🌐	-7473
🌡	-7474
🌥	-7475
🌦	-7476
🍩	-7477
🍶	-7478
🎅	-7479
🎎	-7480
🎖	-7481
🎺	-7482
🏑	-7483
🏒	-7484
🏔	-7485
🏕	-7486
🏖	-7487
🏟	-7488
🏨	-7489
🏭	-7490
🏯	-7491
🏷	-7492
🐇	-7493
🐋	-7494
👗	-7495
👲	-7496
👳	-7497
👷	-7498
💂	-7499
💈	-7500
💷	-7501
📉	-7502
📊	-7503
📎	-7504
📗	-7505
📟	-7506
🔇	-7507
🔘	-7508
🔠	-7509
🔣	-7510
🕑	-7511
🕒	-7512
🕣	-7513
🕧	-7514
🕰	-7515
🖑	-7516
🖓	-7517
🖱	-7518
🗯	-7519
🚁	-7520
🚉	-7521
🚊	-7522
🚌	-7523
🚔	-7524
🚛	-7525
🚢	-7526
🚤	-7527
🚰	-7528
🚹	-7529
🛎	-7530
🛣	-7531
🛥	-7532
🟣	-7533
🟪	-7534
🤽	-7535
🥓	-7536
🥞	-7537
🥠	-7538
🥥	-7539
🥩	-7540
🥬	-7541
🥼	-7542
🦀	-7543
🦏	-7544
🦑	-7545
🦙	-7546
🦚	-7547
🦢	-7548
🦧	-7549
🧃	-7550
🧖	-7551
🧗	-7552
🧙	-7553
🧪	-7554
🧹	-7555
🪁	-7556
🪔	-7557
󠁬	-7558
󠁷	-7559
±	-7560
È	-7561
Ì	-7562
Ñ	-7563
Ü	-7564
ą	-7565
Ć	-7566
ć	-7567
Č	-7568
Ď	-7569
ę	-7570
ĥ	-7571
Ś	-7572
š	-7573
ź	-7574
Ɔ	-7575
ơ	-7576
Ʀ	-7577
ɟ	-7578
ɢ	-7579
ɮ	-7580
ɯ	-7581
ɱ	-7582
ɳ	-7583
ʞ	-7584
ˎ	-7585
˒	-7586
˓	-7587
̑	-7588
̖	-7589
͐	-7590
Δ	-7591
μ	-7592
ρ	-7593
Ё	-7594
Д	-7595
М	-7596
м	-7597
н	-7598
о	-7599
р	-7600
т	-7601
ҡ	-7602
Ӏ	-7603
յ	-7604
ٍ	-7605
ڌ	-7606
۬	-7607
۲	-7608
۸	-7609
३	-7610
४	-7611
९	-7612
ঃ	-7613
ই	-7614
ঈ	-7615
ত	-7616
দ	-7617
ন	-7618
ব	-7619
ভ	-7620
ল	-7621
শ	-7622
ু	-7623
ে	-7624
ো	-7625
ਚ	-7626
ਣ	-7627
ਪ	-7628
ਫ	-7629
ਵ	-7630
ੋ	-7631
ੌ	-7632
ੜ	-7633
ੰ	-7634
ય	-7635
ો	-7636
କ	-7637
ନ	-7638
ପ	-7639
ମ	-7640
ା	-7641
ୀ	-7642
୍	-7643
୭	-7644
ஊ	-7645
ஒ	-7646
ஓ	-7647
ண	-7648
ஶ	-7649
ீ	-7650
ఇ	-7651
చ	-7652
ధ	-7653
వ	-7654
ౣ	-7655
౪	-7656
ಗ	-7657
ಮ	-7658
ೂ	-7659
ೄ	-7660
ട	-7661
മ	-7662
യ	-7663
ല	-7664
ി	-7665
ธ	-7666
ฟ	-7667
ๆ	-7668
ํ	-7669
๛	-7670
༄	-7671
༝	-7672
ྀ	-7673
࿐	-7674
᎔	-7675
ᴄ	-7676
Ḍ	-7677
ắ	-7678
ề	-7679
ệ	-7680
ỉ	-7681
ồ	-7682
ờ	-7683
ở	-7684
ụ	-7685
ủ	-7686
ự	-7687
„	-7688
⃗	-7689
⃝	-7690
↑	-7691
↗	-7692
↦	-7693
↫	-7694
↲	-7695
↷	-7696
⇨	-7697
⇴	-7698
∠	-7699
⏩	-7700
⏯	-7701
⏸	-7702
┄	-7703
┆	-7704
┌	-7705
╬	-7706
▂	-7707
◀	-7708
◎	-7709
◟	-7710
◢	-7711
◥	-7712
◦	-7713
☢	-7714
☦	-7715
☼	-7716
♑	-7717
♕	-7718
♾	-7719
⛱	-7720
⛲	-7721
⛵	-7722
✗	-7723
✮	-7724
✷	-7725
❖	-7726
❢	-7727
❦	-7728
➔	-7729
➠	-7730
➤	-7731
➿	-7732
⬛	-7733
⬜	-7734
⭟	-7735
⸂	-7736
あ	-7737
じ	-7738
ど	-7739
へ	-7740
べ	-7741
よ	-7742
ェ	-7743
カ	-7744
ケ	-7745
ヌ	-7746
ネ	-7747
ホ	-7748
ポ	-7749
ュ	-7750
ヲ	-7751
ヽ	-7752
㇏	-7753
习	-7754
仁	-7755
介	-7756
会	-7757
伯	-7758
八	-7759
刘	-7760
到	-7761
劉	-7762
加	-7763
化	-7764
华	-7765
卐	-7766
口	-7767
周	-7768
因	-7769
図	-7770
国	-7771
團	-7772
大	-7773
奐	-7774
嫌	-7775
宇	-7776
宪	-7777
尔	-7778
幡	-7779
平	-7780
年	-7781
幽	-7782
度	-7783
彈	-7784
当	-7785
彡	-7786
影	-7787
得	-7788
德	-7789
思	-7790
憲	-7791
成	-7792
手	-7793
抽	-7794
担	-7795
握	-7796
放	-7797
旻	-7798
春	-7799
晴	-7800
智	-7801
朴	-7802
森	-7803
欢	-7804
沢	-7805
涼	-7806
煥	-7807
猫	-7808
田	-7809
电	-7810
白	-7811
県	-7812
米	-7813
纳	-7814
茶	-7815
華	-7816
董	-7817
蛋	-7818
象	-7819
賢	-7820
赫	-7821
輝	-7822
迎	-7823
近	-7824
返	-7825
邊	-7826
邦	-7827
重	-7828
野	-7829
鎭	-7830
钟	-7831
開	-7832
防	-7833
霊	-7834
韓	-7835
马	-7836
高	-7837
계	-7838
곤	-7839
과	-7840
구	-7841
권	-7842
긴	-7843
꿈	-7844
낼	-7845
널	-7846
넘	-7847
누	-7848
닛	-7849
닝	-7850
달	-7851
댄	-7852
독	-7853
돌	-7854
됐	-7855
될	-7856
든	-7857
듯	-7858
딱	-7859
떻	-7860
련	-7861
롬	-7862
롯	-7863
립	-7864
많	-7865
맨	-7866
멀	-7867
몰	-7868
뮤	-7869
반	-7870
뱅	-7871
병	-7872
볼	-7873
뷰	-7874
빠	-7875
삐	-7876
설	-7877
셔	-7878
않	-7879
앵	-7880
였	-7881
움	-7882
월	-7883
육	-7884
음	-7885
익	-7886
임	-7887
잊	-7888
작	-7889
잼	-7890
쟈	-7891
저	-7892
져	-7893
좋	-7894
즐	-7895
직	-7896
집	-7897
창	-7898
책	-7899
천	-7900
청	-7901
충	-7902
코	-7903
탈	-7904
퇴	-7905
팀	-7906
펙	-7907
펜	-7908
학	-7909
할	-7910
헌	-7911
헨	-7912
효	-7913
휴	-7914
﹅	-7915
𐨖	-7916
𐨟	-7917
𓈒	-7918
🅳	-7919
🅶	-7920
🅺	-7921
🆁	-7922
🆄	-7923
🌉	-7924
🍠	-7925
🍱	-7926
🍴	-7927
🎚	-7928
🎛	-7929
🎟	-7930
🎡	-7931
🎦	-7932
🎫	-7933
🎱	-7934
🎾	-7935
🏊	-7936
🏘	-7937
🏞	-7938
🏩	-7939
🐌	-7940
🐏	-7941
🐡	-7942
🐨	-7943
🐪	-7944
👚	-7945
👱	-7946
📂	-7947
📔	-7948
📛	-7949
📥	-7950
📦	-7951
📧	-7952
📨	-7953
📳	-7954
🔈	-7955
🔉	-7956
🔌	-7957
🔎	-7958
🔚	-7959
🔟	-7960
🔧	-7961
🔩	-7962
🔷	-7963
🕟	-7964
🕠	-7965
🕹	-7966
🖇	-7967
🗓	-7968
🗝	-7969
🗺	-7970
🚇	-7971
🚍	-7972
🚙	-7973
🚚	-7974
🚠	-7975
🚭	-7976
🚵	-7977
🚺	-7978
🚿	-7979
🛒	-7980
🛕	-7981
🤏	-7982
🥅	-7983
🥙	-7984
🥨	-7985
🥭	-7986
🥮	-7987
🥯	-7988
🦔	-7989
🦖	-7990
🦗	-7991
🦲	-7992
🦴	-7993
🧑	-7994
🧛	-7995
🧥	-7996
